<unk>	0
<s>	0
</s>	0
<pad>	0
<CLS>	0
<SEP>	0
<EOD>	0
<MASK>	0

	0
<0x00>	0
<0x01>	0
<0x02>	0
<0x03>	0
<0x04>	0
<0x05>	0
<0x06>	0
<0x07>	0
<0x08>	0
<0x09>	0
<0x0A>	0
<0x0B>	0
<0x0C>	0
<0x0D>	0
<0x0E>	0
<0x0F>	0
<0x10>	0
<0x11>	0
<0x12>	0
<0x13>	0
<0x14>	0
<0x15>	0
<0x16>	0
<0x17>	0
<0x18>	0
<0x19>	0
<0x1A>	0
<0x1B>	0
<0x1C>	0
<0x1D>	0
<0x1E>	0
<0x1F>	0
<0x20>	0
<0x21>	0
<0x22>	0
<0x23>	0
<0x24>	0
<0x25>	0
<0x26>	0
<0x27>	0
<0x28>	0
<0x29>	0
<0x2A>	0
<0x2B>	0
<0x2C>	0
<0x2D>	0
<0x2E>	0
<0x2F>	0
<0x30>	0
<0x31>	0
<0x32>	0
<0x33>	0
<0x34>	0
<0x35>	0
<0x36>	0
<0x37>	0
<0x38>	0
<0x39>	0
<0x3A>	0
<0x3B>	0
<0x3C>	0
<0x3D>	0
<0x3E>	0
<0x3F>	0
<0x40>	0
<0x41>	0
<0x42>	0
<0x43>	0
<0x44>	0
<0x45>	0
<0x46>	0
<0x47>	0
<0x48>	0
<0x49>	0
<0x4A>	0
<0x4B>	0
<0x4C>	0
<0x4D>	0
<0x4E>	0
<0x4F>	0
<0x50>	0
<0x51>	0
<0x52>	0
<0x53>	0
<0x54>	0
<0x55>	0
<0x56>	0
<0x57>	0
<0x58>	0
<0x59>	0
<0x5A>	0
<0x5B>	0
<0x5C>	0
<0x5D>	0
<0x5E>	0
<0x5F>	0
<0x60>	0
<0x61>	0
<0x62>	0
<0x63>	0
<0x64>	0
<0x65>	0
<0x66>	0
<0x67>	0
<0x68>	0
<0x69>	0
<0x6A>	0
<0x6B>	0
<0x6C>	0
<0x6D>	0
<0x6E>	0
<0x6F>	0
<0x70>	0
<0x71>	0
<0x72>	0
<0x73>	0
<0x74>	0
<0x75>	0
<0x76>	0
<0x77>	0
<0x78>	0
<0x79>	0
<0x7A>	0
<0x7B>	0
<0x7C>	0
<0x7D>	0
<0x7E>	0
<0x7F>	0
<0x80>	0
<0x81>	0
<0x82>	0
<0x83>	0
<0x84>	0
<0x85>	0
<0x86>	0
<0x87>	0
<0x88>	0
<0x89>	0
<0x8A>	0
<0x8B>	0
<0x8C>	0
<0x8D>	0
<0x8E>	0
<0x8F>	0
<0x90>	0
<0x91>	0
<0x92>	0
<0x93>	0
<0x94>	0
<0x95>	0
<0x96>	0
<0x97>	0
<0x98>	0
<0x99>	0
<0x9A>	0
<0x9B>	0
<0x9C>	0
<0x9D>	0
<0x9E>	0
<0x9F>	0
<0xA0>	0
<0xA1>	0
<0xA2>	0
<0xA3>	0
<0xA4>	0
<0xA5>	0
<0xA6>	0
<0xA7>	0
<0xA8>	0
<0xA9>	0
<0xAA>	0
<0xAB>	0
<0xAC>	0
<0xAD>	0
<0xAE>	0
<0xAF>	0
<0xB0>	0
<0xB1>	0
<0xB2>	0
<0xB3>	0
<0xB4>	0
<0xB5>	0
<0xB6>	0
<0xB7>	0
<0xB8>	0
<0xB9>	0
<0xBA>	0
<0xBB>	0
<0xBC>	0
<0xBD>	0
<0xBE>	0
<0xBF>	0
<0xC0>	0
<0xC1>	0
<0xC2>	0
<0xC3>	0
<0xC4>	0
<0xC5>	0
<0xC6>	0
<0xC7>	0
<0xC8>	0
<0xC9>	0
<0xCA>	0
<0xCB>	0
<0xCC>	0
<0xCD>	0
<0xCE>	0
<0xCF>	0
<0xD0>	0
<0xD1>	0
<0xD2>	0
<0xD3>	0
<0xD4>	0
<0xD5>	0
<0xD6>	0
<0xD7>	0
<0xD8>	0
<0xD9>	0
<0xDA>	0
<0xDB>	0
<0xDC>	0
<0xDD>	0
<0xDE>	0
<0xDF>	0
<0xE0>	0
<0xE1>	0
<0xE2>	0
<0xE3>	0
<0xE4>	0
<0xE5>	0
<0xE6>	0
<0xE7>	0
<0xE8>	0
<0xE9>	0
<0xEA>	0
<0xEB>	0
<0xEC>	0
<0xED>	0
<0xEE>	0
<0xEF>	0
<0xF0>	0
<0xF1>	0
<0xF2>	0
<0xF3>	0
<0xF4>	0
<0xF5>	0
<0xF6>	0
<0xF7>	0
<0xF8>	0
<0xF9>	0
<0xFA>	0
<0xFB>	0
<0xFC>	0
<0xFD>	0
<0xFE>	0
<0xFF>	0
、	-3.05446
▁	-3.10876
。	-3.39789
の	-3.57342
は	-4.26723
が	-4.32676
を	-4.5292
に	-4.58654
で	-4.69495
1	-4.74872
と	-4.78188
0	-4.78475
2	-4.97487
)	-5.08706
」	-5.14044
(	-5.19212
・	-5.21784
も	-5.22056
「	-5.32057
や	-5.56386
3	-5.64005
から	-5.68495
です	-5.7535
5	-5.85148
し	-5.95365
4	-5.96409
な	-6.0745
9	-6.18215
する	-6.21675
6	-6.23577
:	-6.24977
8	-6.26711
年	-6.2845
,	-6.31506
7	-6.33475
した	-6.34147
か	-6.40393
して	-6.46552
月	-6.46692
る	-6.47181
.	-6.47991
日	-6.48626
という	-6.55049
では	-6.63672
には	-6.64967
この	-6.66008
た	-6.66286
/	-6.67968
など	-6.69735
その	-6.69971
て	-6.74134
-	-6.76918
って	-6.78569
!	-6.80119
として	-6.86115
でも	-6.86147
人	-6.9089
▁「	-6.90928
ので	-7.04731
お	-7.04986
・・・	-7.05176
大	-7.0547
ます	-7.07836
さん	-7.09789
い	-7.11019
まで	-7.11061
』	-7.11573
だ	-7.12249
?	-7.12868
り	-7.13086
また	-7.14014
へ	-7.14776
である	-7.17044
ら	-7.17395
▁(	-7.20327
ね	-7.23522
について	-7.24545
よ	-7.27535
】	-7.28339
している	-7.28857
中	-7.29335
『	-7.29393
ました	-7.32373
~	-7.34527
より	-7.37405
、「	-7.38664
ー	-7.39014
します	-7.39457
市	-7.3998
一	-7.41719
ス	-7.41785
本	-7.4373
ない	-7.44383
にも	-7.4478
...	-7.45316
とか	-7.4558
分	-7.4838
こと	-7.48473
山	-7.5029
なら	-7.5137
〜	-7.53538
ですが	-7.53627
水	-7.53904
された	-7.56749
く	-7.57291
でした	-7.57691
だった	-7.57765
す	-7.6071
時	-7.61385
しました	-7.63089
さ	-7.64973
ある	-7.67051
き	-7.6757
み	-7.68503
できる	-7.71802
子	-7.72713
つ	-7.72832
円	-7.73369
上	-7.73977
とは	-7.73985
回	-7.74894
いた	-7.75475
名	-7.75666
への	-7.75875
がある	-7.76027
による	-7.76805
しています	-7.77378
日本	-7.77404
情報	-7.78
者	-7.78349
時間	-7.7904
▁|	-7.79057
▁【	-7.81104
方	-7.82081
]	-7.82216
"	-7.826
いる	-7.83311
なので	-7.83465
そして	-7.84161
ご	-7.84651
される	-7.85391
ア	-7.85455
になる	-7.8591
町	-7.86212
性	-7.8755
▁-	-7.87562
第	-7.87694
ている	-7.89011
見	-7.89075
などの	-7.89628
ですね	-7.89959
った	-7.90315
前	-7.91181
手	-7.92531
等	-7.92677
けど	-7.92809
う	-7.93098
s	-7.93128
ため	-7.93213
ように	-7.93975
ト	-7.96594
用	-7.97358
%	-7.97448
化	-7.97572
生	-7.97956
います	-7.98216
数	-7.99264
新	-7.99713
▁この	-8.01168
的な	-8.0137
もの	-8.01532
今	-8.02114
金	-8.02232
会	-8.0249
法	-8.0268
によって	-8.02772
事	-8.02839
サービス	-8.02953
ク	-8.02979
リ	-8.03144
力	-8.03179
話	-8.03204
A	-8.03294
物	-8.03319
下	-8.03598
笑	-8.03697
だけ	-8.03945
ズ	-8.04352
のか	-8.0454
こ	-8.04793
出	-8.05253
後	-8.05735
|	-8.06029
川	-8.06143
高	-8.06269
的	-8.0675
♪	-8.06965
”	-8.07051
小	-8.07139
&	-8.07301
いい	-8.07678
店	-8.08073
国	-8.09018
ラ	-8.09989
マ	-8.10517
C	-8.10824
ながら	-8.11272
コ	-8.11307
内	-8.11423
ん	-8.1241
S	-8.12632
家	-8.12687
長	-8.12964
しかし	-8.13059
道	-8.13807
心	-8.14051
自分の	-8.14146
そう	-8.1419
され	-8.14221
いて	-8.14677
m	-8.14867
目	-8.15493
ま	-8.15597
部	-8.15749
▁>	-8.16329
三	-8.1655
のですが	-8.17285
ル	-8.17524
ド	-8.18056
わ	-8.18326
たい	-8.18528
私は	-8.18541
されている	-8.18563
があります	-8.19829
線	-8.19945
シ	-8.20651
ノ	-8.20703
サイト	-8.20705
カ	-8.20904
かな	-8.20968
により	-8.21537
田	-8.21543
w	-8.21552
ような	-8.21665
ほど	-8.23074
もう	-8.2329
色	-8.2351
地	-8.23516
む	-8.23735
何	-8.23983
め	-8.24071
約	-8.24098
環境	-8.24148
問題	-8.24242
点	-8.24903
駅	-8.24966
と思います	-8.25215
木	-8.25356
よう	-8.25385
ナ	-8.26112
あ	-8.2652
島	-8.266
だから	-8.26628
【	-8.26744
B	-8.27257
っ	-8.27323
所	-8.29095
気	-8.29613
だと	-8.30093
すると	-8.30121
ば	-8.30318
口	-8.30408
んだ	-8.30825
二	-8.30944
良い	-8.31223
光	-8.31944
外	-8.32043
野	-8.32254
ず	-8.32305
写真	-8.3255
ち	-8.32587
なんて	-8.33066
代	-8.3349
型	-8.33656
イ	-8.33785
にある	-8.33791
タ	-8.33865
」「	-8.34054
よく	-8.34427
でしょう	-8.34462
これは	-8.34576
ください	-8.34593
さらに	-8.34693
T	-8.34934
会社	-8.351
ちょっと	-8.35435
▁[	-8.3591
美	-8.35955
元	-8.36059
さんの	-8.367
していた	-8.37072
>	-8.37189
位	-8.37234
地域	-8.37475
方法	-8.37489
活動	-8.37887
企業	-8.38191
車	-8.38306
バ	-8.38308
海	-8.3848
ゲーム	-8.38514
オ	-8.39225
あり	-8.40006
神	-8.40011
え	-8.40113
なかった	-8.40443
事業	-8.40749
ム	-8.40835
そんな	-8.40886
とても	-8.41404
同	-8.41603
対応	-8.41977
大きな	-8.42245
石	-8.42411
ています	-8.42704
ことを	-8.42929
生活	-8.4299
万	-8.43204
風	-8.43434
先	-8.43636
があり	-8.43848
ミ	-8.43997
原	-8.44049
仕事	-8.4407
場合	-8.44242
ところ	-8.44339
フ	-8.45001
人の	-8.45099
花	-8.45323
レ	-8.45437
機能	-8.45458
前に	-8.45468
キ	-8.45469
度	-8.45592
大学	-8.45632
特に	-8.45705
技術	-8.45745
時に	-8.46026
ちゃん	-8.46197
西	-8.46429
書	-8.46456
▁■	-8.46476
システム	-8.46689
系	-8.46722
となる	-8.46793
人が	-8.46861
G	-8.47155
サ	-8.47628
M	-8.47643
それ	-8.47665
利用	-8.47686
商品	-8.47734
D	-8.48053
になった	-8.4861
したい	-8.49262
ロ	-8.49465
社	-8.49615
東京	-8.49663
販売	-8.49831
ジ	-8.49847
東	-8.49999
屋	-8.50202
的に	-8.50247
私	-8.5035
体	-8.50379
様	-8.50448
戦	-8.5052
作品	-8.50562
新しい	-8.50626
ツ	-8.50908
F	-8.5135
曲	-8.51371
▁また	-8.51626
料理	-8.5192
無	-8.51941
村	-8.51992
に関する	-8.52171
号	-8.52303
南	-8.52477
少し	-8.52592
であり	-8.52807
☆	-8.53129
全	-8.53293
場所	-8.53609
各	-8.5361
白	-8.53941
行	-8.54197
状況	-8.5422
ブログ	-8.54233
人は	-8.54393
ダ	-8.54747
他の	-8.54944
エ	-8.55073
管理	-8.55101
台	-8.55456
になります	-8.55686
のある	-8.55796
不	-8.56015
本当に	-8.56184
場	-8.56439
私の	-8.56647
まだ	-8.56657
音	-8.56996
天	-8.57092
教育	-8.57297
品	-8.57797
愛	-8.58256
女性	-8.58809
平	-8.5888
デザイン	-8.58916
と思う	-8.58939
しか	-8.5895
面	-8.5925
音楽	-8.59453
それは	-8.59574
イン	-8.59629
及び	-8.5963
なく	-8.59839
内容	-8.59844
これ	-8.60188
感	-8.60293
和	-8.60474
ポイント	-8.60744
版	-8.61274
のです	-8.61378
ことが	-8.61425
別	-8.6144
研究	-8.61747
K	-8.61984
食	-8.62172
にて	-8.62436
じ	-8.62676
H	-8.62719
間	-8.63216
文	-8.63341
ことは	-8.63512
歳	-8.63657
における	-8.63922
れ	-8.64069
状態	-8.64255
P	-8.64338
モ	-8.64408
れば	-8.64454
らしい	-8.64798
使用	-8.64922
ガ	-8.65035
学	-8.65319
世界	-8.65782
そうです	-8.66064
▁『	-8.66214
=	-8.66267
御	-8.66476
イベント	-8.66776
だが	-8.66873
ページ	-8.66949
のみ	-8.66986
社会	-8.67033
くらい	-8.67323
できない	-8.67897
同じ	-8.68099
ど	-8.68156
になって	-8.68215
け	-8.68246
だろう	-8.68539
グ	-8.68794
W	-8.68816
工事	-8.69009
味	-8.69182
ネット	-8.69201
せ	-8.69457
▁※	-8.69634
・・	-8.69774
テ	-8.69959
着	-8.70074
効果	-8.70118
評価	-8.70228
については	-8.70323
機	-8.70328
関係	-8.7078
調査	-8.70964
ひ	-8.71046
のような	-8.71056
ません	-8.71069
頭	-8.71199
対策	-8.71268
よりも	-8.71408
できます	-8.71427
足	-8.71525
真	-8.72028
室	-8.72077
パ	-8.7211
ただ	-8.72197
R	-8.72263
城	-8.72519
北	-8.72568
登録	-8.72634
だけで	-8.72653
空	-8.72736
の中で	-8.728
といった	-8.7282
万円	-8.72953
られる	-8.7318
いました	-8.73364
しない	-8.73547
メ	-8.73574
取り	-8.73574
デ	-8.73576
学校	-8.73674
において	-8.73785
ビ	-8.73958
施設	-8.74102
相談	-8.74125
ニ	-8.74139
N	-8.74161
ネ	-8.74391
ッ	-8.74459
ブ	-8.74539
何か	-8.74646
参加	-8.74709
治療	-8.74878
センター	-8.74901
のように	-8.74922
からの	-8.74935
データ	-8.75121
作業	-8.75185
ウ	-8.75415
記事	-8.75524
初めて	-8.7571
んで	-8.76004
ではなく	-8.76149
ン	-8.76184
というのは	-8.76219
立	-8.76294
式	-8.76516
年に	-8.76617
かなり	-8.7662
土	-8.77356
セット	-8.77409
多くの	-8.77589
一番	-8.77658
初	-8.77816
日に	-8.77842
ハ	-8.77988
現在	-8.78069
主	-8.7812
無料	-8.78208
チ	-8.78221
予定	-8.78403
ホテル	-8.7841
以上	-8.78411
セ	-8.7857
映画	-8.78592
ファン	-8.78745
メール	-8.78857
んです	-8.78862
々	-8.79001
馬	-8.79085
支援	-8.79355
E	-8.79495
コース	-8.79593
きた	-8.79673
氏	-8.79686
たら	-8.79768
作	-8.79812
カード	-8.79868
あまり	-8.801
バス	-8.80112
思い	-8.80254
直	-8.80257
ために	-8.80409
自分	-8.80438
条件	-8.80537
プロ	-8.80568
さんが	-8.80637
ではない	-8.80816
に対して	-8.80947
それを	-8.81116
g	-8.81218
経験	-8.81246
▁そして	-8.81441
ふ	-8.81631
に対する	-8.818
価格	-8.81854
いない	-8.81974
形	-8.82001
薬	-8.82023
があった	-8.82027
バー	-8.82217
“	-8.82352
なり	-8.82478
谷	-8.82484
されています	-8.82516
寺	-8.82764
日本の	-8.8277
ていた	-8.82778
紹介	-8.83392
▁第	-8.83448
雨	-8.83568
でしょうか	-8.83631
+	-8.83984
入	-8.84028
体験	-8.84039
番	-8.84128
とき	-8.84172
業者	-8.84263
他	-8.84356
こんな	-8.84522
マン	-8.84557
必要	-8.84719
～	-8.84842
ことで	-8.84858
男	-8.85156
語	-8.85525
ろ	-8.856
通	-8.85747
夜	-8.85764
開発	-8.85902
料金	-8.85973
[	-8.86006
→	-8.86015
どう	-8.86103
費用	-8.86125
すること	-8.86286
こう	-8.86358
高い	-8.8638
温泉	-8.86448
アップ	-8.86482
女	-8.86514
つの	-8.86636
結果	-8.86731
購入	-8.86837
正	-8.86907
ゴ	-8.86916
表	-8.86951
様々な	-8.86983
リー	-8.87212
られた	-8.87234
熱	-8.87247
理由	-8.87325
▁#	-8.87342
契約	-8.87634
検索	-8.87726
確認	-8.8812
通り	-8.88135
▁でも	-8.88363
プ	-8.88407
朝	-8.88439
および	-8.88447
ニュース	-8.8847
まず	-8.88542
宮	-8.88653
米	-8.88799
計画	-8.88895
区	-8.88922
楽	-8.88965
黒	-8.88967
画像	-8.88996
質問	-8.88996
▁●	-8.89063
人気	-8.89459
店舗	-8.89594
モデル	-8.89803
夢	-8.89947
サイズ	-8.89973
されて	-8.90116
場合は	-8.90179
させる	-8.90196
流	-8.9024
としては	-8.9039
J	-8.90709
火	-8.90795
もっと	-8.90801
L	-8.91485
役	-8.91541
▁しかし	-8.91702
をする	-8.91708
!!	-8.91871
ケ	-8.91916
設定	-8.92059
次	-8.92374
ヤ	-8.9261
説明	-8.92626
人間	-8.92796
とも	-8.92859
すれば	-8.93052
のために	-8.93142
ザ	-8.93352
処理	-8.93612
毎日	-8.93657
見て	-8.93685
いく	-8.9381
文化	-8.93855
なんか	-8.93856
顔	-8.93908
すぐに	-8.93966
超	-8.93973
ぞ	-8.93994
コン	-8.94016
多	-8.94421
春	-8.94521
もある	-8.94545
感じ	-8.94622
船	-8.94658
例	-8.948
平成	-8.94885
医療	-8.94925
▁/	-8.95037
等の	-8.9513
または	-8.95134
ということ	-8.95154
製品	-8.95178
び	-8.95193
なる	-8.95242
家族	-8.95245
丸	-8.95287
下さい	-8.95381
動画	-8.95682
となった	-8.95682
安	-8.95747
それが	-8.96296
っている	-8.9631
になり	-8.96363
なかなか	-8.9653
私が	-8.96538
ディ	-8.96672
枚	-8.96719
中国	-8.96798
量	-8.96896
テレビ	-8.9701
いつも	-8.97061
男性	-8.97076
旅行	-8.97145
考え	-8.97358
健康	-8.97377
よね	-8.97406
制度	-8.97484
しながら	-8.97577
したり	-8.97577
有	-8.97724
発	-8.97828
ケース	-8.98009
くる	-8.98034
の方が	-8.98155
あの	-8.98209
ると	-8.98554
やはり	-8.98564
明	-8.98653
たり	-8.9868
件	-8.98689
パン	-8.98722
井	-8.98787
さんは	-8.99006
予約	-8.9918
橋	-8.99249
グループ	-8.99316
来	-8.99401
したら	-8.99477
入り	-8.99491
_	-8.9972
自然	-8.99725
紙	-8.999
表示	-9.00043
やすい	-9.00099
業務	-9.00151
住宅	-9.00297
実	-9.00361
重	-9.00383
ボ	-9.00601
チーム	-9.00628
▁その	-9.00659
V	-9.00665
なのか	-9.00667
ようです	-9.00721
t	-9.00803
歌	-9.00816
買取	-9.00939
なし	-9.01115
カー	-9.01176
なぁ	-9.01208
X	-9.01245
市場	-9.01317
がない	-9.01495
試験	-9.01747
館	-9.01927
査定	-9.01951
経済	-9.02104
であった	-9.02117
どんな	-9.02272
っと	-9.02359
×	-9.02419
病院	-9.02662
ぎ	-9.02663
」(	-9.02748
ワ	-9.02758
ブランド	-9.02778
を見て	-9.02779
魚	-9.03109
理解	-9.03159
じゃない	-9.03299
アプリ	-9.03314
種	-9.03361
電話	-9.03397
古	-9.034
今回は	-9.03405
実際に	-9.03446
y	-9.03463
ものです	-9.03546
気持ち	-9.03564
スポーツ	-9.03728
経営	-9.03795
星	-9.03807
赤	-9.03989
o	-9.04299
板	-9.04396
死	-9.04404
行く	-9.04504
公園	-9.04505
投稿	-9.04519
ましょう	-9.04556
▁S	-9.04566
ビジネス	-9.04648
結婚	-9.04894
ですよね	-9.04943
タイプ	-9.04986
営業	-9.05297
してる	-9.05392
大阪	-9.05411
部分	-9.05461
図	-9.05534
時代	-9.05561
e	-9.05576
雪	-9.05623
を行う	-9.05645
選手	-9.05665
ぶ	-9.05768
おり	-9.06001
Y	-9.06046
ぐ	-9.06127
コメント	-9.06272
などを	-9.06422
早く	-9.06438
そういう	-9.06721
楽しい	-9.06885
のでしょうか	-9.06895
月に	-9.06962
値	-9.07064
あります	-9.07102
審査	-9.07163
方が	-9.07196
サン	-9.07319
されます	-9.0736
公	-9.07371
期待	-9.07373
メニュー	-9.07504
日記	-9.07533
年間	-9.07708
いたします	-9.07755
ぜひ	-9.07764
ティ	-9.07866
更新	-9.07871
横	-9.07968
n	-9.08033
割	-9.08121
非常に	-9.08374
撮影	-9.0852
方は	-9.08615
にして	-9.08661
をして	-9.08675
親	-9.08734
だけでなく	-9.08735
公開	-9.09042
毛	-9.09083
ことに	-9.09109
ソ	-9.09398
株式会社	-9.09422
あと	-9.095
シリーズ	-9.09583
となります	-9.09769
作り	-9.09804
そ	-9.09813
産	-9.09915
p	-9.09975
を使って	-9.10112
中の	-9.10313
ピ	-9.10459
文字	-9.10503
関連	-9.10544
だけど	-9.1067
チェック	-9.10685
i	-9.10704
報告	-9.10842
組	-9.10848
論	-9.10873
五	-9.10922
と言う	-9.10992
率	-9.1107
後に	-9.11401
松	-9.11543
当	-9.11824
ですか	-9.1185
肉	-9.11889
付き	-9.11924
してください	-9.11937
やって	-9.12281
もちろん	-9.12319
株	-9.12321
おすすめ	-9.12471
大会	-9.12485
切り	-9.12507
になりました	-9.12527
ずっと	-9.12578
表現	-9.12606
リフォーム	-9.12666
勉強	-9.12916
などで	-9.1293
ということで	-9.12933
今日は	-9.13043
かも	-9.13186
岩	-9.13196
四	-9.13278
不安	-9.13351
となり	-9.13406
合	-9.13432
d	-9.13439
企画	-9.13449
太	-9.13542
自分が	-9.13615
アン	-9.13667
行動	-9.13786
としても	-9.13862
放送	-9.13891
以下	-9.13893
しております	-9.1397
変更	-9.14102
国際	-9.14251
イメージ	-9.14275
桜	-9.1428
人に	-9.14334
ヒ	-9.14495
左	-9.14544
簡単に	-9.14615
お店	-9.14616
席	-9.14666
ばかり	-9.14714
やっぱり	-9.14953
交換	-9.15121
ときに	-9.15196
絵	-9.15298
ライン	-9.15338
右	-9.15367
郡	-9.15439
実は	-9.15575
身	-9.15658
自分で	-9.15704
運動	-9.15759
再	-9.15778
子供	-9.15955
けれど	-9.15996
ですよ	-9.15999
心配	-9.16095
試合	-9.16116
前の	-9.16119
県	-9.16187
意識	-9.1619
▁A	-9.16203
k	-9.16218
じゃ	-9.16342
にとって	-9.16381
最近	-9.16461
八	-9.16497
そこで	-9.1666
好き	-9.16674
素材	-9.16749
になっている	-9.16776
夏	-9.168
類	-9.17022
ハイ	-9.17024
U	-9.17062
不動産	-9.17248
希望	-9.17269
が多い	-9.17311
先生	-9.1732
草	-9.17369
自	-9.17464
かもしれません	-9.17489
業	-9.17563
引き	-9.17566
ター	-9.17633
あった	-9.17686
を見	-9.17904
のこと	-9.17932
ラン	-9.18163
君	-9.18255
検査	-9.18268
会員	-9.18347
英語	-9.18398
込み	-9.18543
その後	-9.18702
門	-9.18769
個人	-9.18779
比較	-9.18843
プラン	-9.18914
能力	-9.18933
声	-9.18958
小さな	-9.19118
そうな	-9.19166
成	-9.19171
ソフト	-9.19285
ぐらい	-9.19305
年の	-9.1931
ること	-9.19324
相	-9.19413
器	-9.19442
リンク	-9.19453
O	-9.19466
波	-9.19839
cm	-9.19967
@	-9.20006
年度	-9.20032
勝	-9.20052
メーカー	-9.20101
番組	-9.20124
期	-9.20159
発表	-9.20237
違う	-9.20237
制	-9.20397
上の	-9.20418
スタッフ	-9.20498
根	-9.20506
千	-9.20596
ポ	-9.20737
湯	-9.20787
食事	-9.20801
沢	-9.20842
すぐ	-9.20865
学生	-9.20919
b	-9.20946
設計	-9.20956
トップ	-9.21035
カメラ	-9.21037
条	-9.21085
▁お	-9.21112
お金	-9.21267
出す	-9.21306
組織	-9.2138
はない	-9.21474
ことができます	-9.21517
とともに	-9.21627
中に	-9.21676
リング	-9.21746
一覧	-9.21797
だし	-9.21814
していく	-9.21872
★	-9.21896
個	-9.21988
病	-9.22207
を持つ	-9.2223
カラー	-9.22271
開催	-9.22332
酒	-9.22385
)」	-9.22765
一般	-9.22781
葉	-9.22852
玉	-9.2286
の場合	-9.229
犬	-9.2298
成長	-9.23055
ベ	-9.23062
ロー	-9.23075
銀行	-9.23125
旧	-9.23141
夫	-9.23165
座	-9.23224
はこちら	-9.23317
軍	-9.23403
時の	-9.23539
のため	-9.23601
脱毛	-9.23658
売却	-9.23737
安全	-9.23744
局	-9.23803
一度	-9.23872
ですから	-9.23882
裏	-9.24026
を見る	-9.24156
秋	-9.24172
だって	-9.24264
総	-9.24501
ユーザー	-9.2452
市の	-9.24536
街	-9.24587
付け	-9.24616
学習	-9.24641
言葉	-9.24938
課題	-9.25127
》	-9.25336
可能	-9.25617
海外	-9.25744
エリア	-9.25988
ぬ	-9.26074
悪	-9.26212
れる	-9.26239
と同じ	-9.26257
スト	-9.26263
ときは	-9.26285
ランキング	-9.26335
シー	-9.26374
今回の	-9.26396
みたいな	-9.26462
意味	-9.26511
されました	-9.26512
出し	-9.26525
業界	-9.26554
つき	-9.2673
付	-9.26806
今日	-9.27048
立ち	-9.27115
であれば	-9.2714
旅	-9.27154
大変	-9.27513
尾	-9.27577
母	-9.27634
られ	-9.27649
巻	-9.27677
特別	-9.27679
集	-9.277
猫	-9.2774
科	-9.27818
みんな	-9.27888
州	-9.27913
私も	-9.2801
期間	-9.28022
結構	-9.28068
次の	-9.28087
そのまま	-9.28096
げ	-9.28116
パソコン	-9.28213
シャ	-9.28218
レベル	-9.28259
差	-9.28457
開始	-9.28464
なお	-9.28509
PC	-9.28569
安心	-9.28669
昭和	-9.28723
塩	-9.28943
ほ	-9.29026
費	-9.29068
でしたが	-9.29105
必ず	-9.29117
投資	-9.29123
のための	-9.29138
信	-9.29281
言う	-9.29296
広告	-9.29307
空間	-9.29361
限定	-9.29602
ファイル	-9.29653
それぞれ	-9.29734
電	-9.29803
両	-9.29807
改善	-9.29931
の中に	-9.29953
だと思います	-9.30044
I	-9.30069
あなたの	-9.30156
アメリカ	-9.3019
角	-9.30202
対	-9.30228
中央	-9.30316
しても	-9.30578
リン	-9.30612
残	-9.30699
全国	-9.30786
堂	-9.31048
ペ	-9.31069
ヶ月	-9.31074
練習	-9.31242
強い	-9.3128
ギ	-9.31305
存在	-9.31347
クラブ	-9.31413
たち	-9.31473
はず	-9.31545
があって	-9.31565
まとめ	-9.31645
指定	-9.31679
青	-9.31692
展開	-9.31742
時は	-9.31959
坂	-9.32006
a	-9.32044
都市	-9.32084
建物	-9.32137
スタイル	-9.32175
代表	-9.32349
修理	-9.32439
持ち	-9.32463
好きな	-9.32499
担当	-9.32557
インターネット	-9.32584
ちゃんと	-9.32593
観光	-9.32695
今回	-9.32736
校	-9.32741
検討	-9.32841
野菜	-9.32878
発売	-9.32915
士	-9.32928
治	-9.33013
サポート	-9.33043
ドラマ	-9.33048
里	-9.33058
運営	-9.33073
基準	-9.332
王	-9.33215
命	-9.33222
編	-9.33265
ショップ	-9.33311
土地	-9.33337
取引	-9.33774
らない	-9.33837
一緒に	-9.33916
Q	-9.33959
ット	-9.33961
連	-9.33971
に行く	-9.33975
釣り	-9.34156
通信	-9.34174
!」	-9.34235
香	-9.34422
訳	-9.34453
種類	-9.34475
今まで	-9.34504
準備	-9.34545
制作	-9.34552
歴史	-9.34577
アル	-9.34641
アイ	-9.34642
させて	-9.34645
タイ	-9.34791
▁私は	-9.34837
さま	-9.35026
総合	-9.35065
字	-9.35124
生産	-9.35135
上で	-9.35239
権	-9.35395
んだけど	-9.3543
▁C	-9.35439
んですが	-9.35541
al	-9.35542
教室	-9.35591
の方	-9.35599
▁今日は	-9.35659
どの	-9.35855
きました	-9.35919
向け	-9.3603
変化	-9.36073
しており	-9.36103
これが	-9.36201
することで	-9.36295
高校	-9.36319
園	-9.36324
もあり	-9.36333
プログラム	-9.36403
連絡	-9.36491
ケア	-9.36536
目的	-9.36584
北海道	-9.36634
ライブ	-9.36649
行き	-9.36675
森	-9.36695
江	-9.36787
終了	-9.36827
ここ	-9.36915
ラー	-9.36998
マンション	-9.37014
'	-9.37022
倍	-9.37246
なくて	-9.37252
長い	-9.37349
ことができる	-9.37357
c	-9.37424
是非	-9.37469
機会	-9.37535
なん	-9.37572
ありがとうございます	-9.3762
フリー	-9.37642
もあります	-9.37679
額	-9.37735
ところで	-9.37795
つまり	-9.37835
メンバー	-9.37857
直接	-9.37889
保険	-9.3793
ぼ	-9.38039
面白い	-9.38118
あるいは	-9.3825
宿	-9.38357
これから	-9.38392
寝	-9.38402
かもしれない	-9.38451
すべての	-9.3848
移動	-9.38501
その他	-9.3853
くん	-9.38563
資料	-9.38643
映像	-9.38737
ホームページ	-9.38769
達	-9.38775
ホ	-9.38827
良く	-9.38866
このような	-9.38884
のだ	-9.38993
例えば	-9.39091
林	-9.39204
v	-9.39288
作成	-9.39318
と思って	-9.39443
院	-9.39539
増	-9.39637
津	-9.39784
部屋	-9.39812
時期	-9.39844
事故	-9.3986
変	-9.39929
してくれる	-9.39955
監督	-9.40066
記	-9.40081
スター	-9.40138
客	-9.40194
ワン	-9.40207
▁B	-9.40234
油	-9.403
つく	-9.40367
戸	-9.40371
テーマ	-9.40388
とした	-9.4046
子ども	-9.40559
物件	-9.40634
かった	-9.40654
市民	-9.40723
歯	-9.40815
利	-9.40834
OK	-9.40927
服	-9.40983
;	-9.41115
ことも	-9.41168
成分	-9.41171
地方	-9.412
保存	-9.41208
すべて	-9.41243
事件	-9.41292
名前	-9.41319
観	-9.41357
▁...	-9.41357
焼き	-9.41382
後の	-9.41384
指導	-9.4144
安い	-9.41465
最大	-9.41633
とする	-9.41668
七	-9.41671
なのに	-9.417
買い	-9.41709
清	-9.41804
書き	-9.41807
よい	-9.41828
製	-9.41838
が多く	-9.41846
読み	-9.4196
アクセス	-9.42035
団体	-9.42118
肌	-9.42156
#	-9.42193
転職	-9.42337
全部	-9.42503
産業	-9.42634
さまざまな	-9.42642
出会い	-9.42698
すごい	-9.42779
プロジェクト	-9.42822
良	-9.42835
吉	-9.429
フル	-9.4291
動き	-9.43056
対象	-9.43145
採用	-9.43164
冬	-9.43233
程	-9.43275
箱	-9.43372
r	-9.43378
入れ	-9.43536
欲しい	-9.43596
美味しい	-9.4362
賞	-9.43687
久	-9.43705
半	-9.4374
気分	-9.43757
かけ	-9.43772
低	-9.43786
ほとんど	-9.43786
売り	-9.4379
レス	-9.43791
モノ	-9.43867
好	-9.43942
口コミ	-9.43958
カン	-9.44002
ツアー	-9.44093
ドル	-9.44096
と思った	-9.44163
まずは	-9.44196
分析	-9.44275
ホーム	-9.44318
金額	-9.44327
居	-9.44346
しましょう	-9.44364
《	-9.44508
構造	-9.44512
義	-9.44552
てしまう	-9.44637
介護	-9.44671
かつ	-9.44755
しかも	-9.44833
これを	-9.44863
程度	-9.44867
ダイエット	-9.44909
してきた	-9.44925
茶	-9.4495
言	-9.4496
アイテム	-9.45003
自動車	-9.45024
会場	-9.45025
オープン	-9.45032
のお	-9.4505
武	-9.45121
鳥	-9.45165
一人	-9.45172
−	-9.45284
ひと	-9.45305
なぜ	-9.45389
遊び	-9.45446
配信	-9.45454
アニメ	-9.45468
取	-9.455
<	-9.45508
鉄	-9.45556
目標	-9.45568
u	-9.45595
傷	-9.45637
以上の	-9.45772
in	-9.4587
募集	-9.45892
掲載	-9.45904
員	-9.45981
計算	-9.45998
画面	-9.46015
年齢	-9.46068
新たな	-9.46172
早	-9.4618
へと	-9.46184
エネルギー	-9.46203
用の	-9.46268
病気	-9.46331
•	-9.46358
障害	-9.46428
見る	-9.46476
者の	-9.46495
価値	-9.46605
Z	-9.46729
章	-9.46795
血	-9.46798
指	-9.46802
しい	-9.46882
多く	-9.46922
を持って	-9.46935
リスト	-9.46958
祭	-9.46985
ものの	-9.47025
判断	-9.47081
キー	-9.47105
ができる	-9.47158
最後の	-9.47171
質	-9.47246
▁今	-9.47282
食べ	-9.47365
基本	-9.4739
美しい	-9.47523
節	-9.47657
汗	-9.47715
剤	-9.47719
ここで	-9.47754
週間	-9.47765
会議	-9.47768
スーパー	-9.47842
非	-9.47845
タイム	-9.47849
第一	-9.47853
弾	-9.47881
みたい	-9.47906
人生	-9.47984
食品	-9.48001
活用	-9.48014
トン	-9.48042
ビル	-9.48084
流れ	-9.48147
を中心に	-9.48163
依頼	-9.48172
マー	-9.48238
ための	-9.48289
ing	-9.48307
家の	-9.4836
出来る	-9.48361
だったので	-9.48383
mm	-9.48434
最も	-9.4845
▁そんな	-9.48509
提供	-9.48527
ありがとうございました	-9.48615
弱	-9.4862
を受け	-9.48633
していない	-9.48651
になると	-9.48708
今後	-9.48758
建設	-9.48814
ガス	-9.48838
脳	-9.48851
タン	-9.48912
・・・・	-9.48973
ほか	-9.48988
f	-9.4907
知	-9.49113
教	-9.49161
込んで	-9.49181
最高	-9.4919
印象	-9.49285
別の	-9.49294
日本語	-9.49337
相場	-9.4942
一つ	-9.49438
路	-9.49491
決定	-9.49573
注意	-9.49576
回答	-9.49651
為	-9.4968
というか	-9.49702
新聞	-9.49885
シュ	-9.49887
女子	-9.49888
強	-9.50034
▁<	-9.50065
層	-9.50073
スタート	-9.50138
当然	-9.50176
考えて	-9.50185
もし	-9.50282
素晴らしい	-9.50323
CD	-9.50348
こういう	-9.50354
奥	-9.50357
全く	-9.50379
大人	-9.50401
しまった	-9.5041
京	-9.50575
特徴	-9.50585
神社	-9.50747
骨	-9.50749
日々	-9.50896
京都	-9.50903
応援	-9.50947
使い	-9.50975
定	-9.51233
レビュー	-9.51272
のない	-9.51331
理	-9.51367
いろいろ	-9.51385
しっかり	-9.51454
師	-9.51589
未	-9.51601
日の	-9.51658
反応	-9.51707
悪い	-9.51826
べ	-9.51981
入力	-9.52004
官	-9.52024
これらの	-9.52045
ものを	-9.52144
案内	-9.52308
攻撃	-9.52309
▁日本	-9.52354
求人	-9.52454
させ	-9.52507
工場	-9.52535
物語	-9.52578
▁P	-9.52694
小学校	-9.52738
道路	-9.52772
多い	-9.52781
のだが	-9.52964
雰囲気	-9.52974
社長	-9.52998
すごく	-9.5305
委員会	-9.53299
ゼ	-9.53397
良かった	-9.53413
選択	-9.53458
が高い	-9.53482
こそ	-9.53518
がありました	-9.53536
しまう	-9.5355
記録	-9.53637
雲	-9.53637
自由	-9.53655
級	-9.53713
h	-9.53721
ジャ	-9.53734
ゆ	-9.53804
派	-9.53832
よかった	-9.53876
敵	-9.53909
記憶	-9.53965
現在の	-9.5401
タイトル	-9.54042
受け	-9.54046
電気	-9.54049
調整	-9.54197
知識	-9.5421
ても	-9.54239
ですので	-9.54253
すでに	-9.54349
羽	-9.54388
さんに	-9.54408
があれば	-9.5445
メディア	-9.54507
クラス	-9.54543
転	-9.54552
の場合は	-9.5476
ありません	-9.54765
追加	-9.54812
深	-9.54818
ましたが	-9.54841
x	-9.54857
中で	-9.54868
合い	-9.54932
の話	-9.54975
ファ	-9.54986
料	-9.55018
?」	-9.55024
素	-9.55043
レース	-9.55045
ヨ	-9.55201
志	-9.55222
などが	-9.55263
するのは	-9.55302
端	-9.55317
なければ	-9.55353
まして	-9.55358
竹	-9.55386
テスト	-9.55391
都	-9.5542
職	-9.55451
er	-9.55452
普通	-9.5546
建築	-9.55532
これまで	-9.5556
壁	-9.55571
逆	-9.55577
されていた	-9.55595
編集	-9.55648
カフェ	-9.55766
or	-9.55798
どうぞ	-9.55841
IT	-9.55842
階	-9.55845
一部	-9.55856
l	-9.55972
原因	-9.55973
未来	-9.55981
チャ	-9.56002
腕	-9.56021
ゲ	-9.56022
材	-9.56034
まる	-9.56107
▁◆	-9.56142
コード	-9.56185
六	-9.5621
スペース	-9.56387
調	-9.56487
あたり	-9.5653
今は	-9.56584
なのです	-9.56622
加工	-9.56629
気になる	-9.56635
られて	-9.56671
社員	-9.56752
かどうか	-9.56808
経	-9.56889
自己	-9.56925
こちら	-9.57017
とっても	-9.5708
いま	-9.57087
解決	-9.57148
目に	-9.57176
それに	-9.57209
通常	-9.57234
言い	-9.57259
湖	-9.57304
鉄道	-9.57338
くれる	-9.57339
樹	-9.57412
頃	-9.57509
www	-9.57562
演奏	-9.57576
。※	-9.57596
行って	-9.57603
バック	-9.57719
上げ	-9.57744
ずに	-9.57771
協力	-9.57806
オンライン	-9.57806
開	-9.57812
しよう	-9.58025
てきた	-9.58029
父	-9.58107
でき	-9.58187
ネタ	-9.58203
携帯	-9.58206
側	-9.58219
ねぇ	-9.58246
事務所	-9.58301
協会	-9.58311
浜	-9.58454
▁さて	-9.58522
今の	-9.58534
専門	-9.58584
全て	-9.58624
暮らし	-9.58634
マイ	-9.58676
を作る	-9.58872
塗装	-9.58874
リア	-9.58932
輪	-9.58941
又は	-9.58958
そば	-9.59007
できた	-9.59116
▁M	-9.59238
関	-9.59257
地図	-9.59282
何も	-9.59431
HP	-9.59431
込む	-9.59435
シーン	-9.59471
んですけど	-9.59532
秒	-9.59561
内の	-9.59582
をしている	-9.59589
渡	-9.59626
ほぼ	-9.59733
プレゼント	-9.59788
はありません	-9.59808
リスク	-9.59914
英	-9.59934
相手	-9.59938
レストラン	-9.59958
ミニ	-9.59992
断	-9.60031
トイレ	-9.60143
ジュ	-9.60271
ならば	-9.60379
便	-9.60392
ようで	-9.60415
それでも	-9.6043
だな	-9.6046
アルバム	-9.60508
スマホ	-9.60637
▁★	-9.60686
▁T	-9.60762
注文	-9.60808
コーヒー	-9.60836
ハウス	-9.60843
運転	-9.61027
幸せ	-9.61035
そうだ	-9.6107
妻	-9.6108
、『	-9.6137
外壁塗装	-9.61414
使う	-9.61448
出来	-9.61483
行為	-9.6152
きっと	-9.61522
予想	-9.61551
▁これは	-9.61624
ものは	-9.61724
▁ただ	-9.61782
ここに	-9.61877
法人	-9.61919
以外の	-9.61925
どのような	-9.61975
恋	-9.61983
だよ	-9.61996
スレ	-9.62032
というのが	-9.6204
周辺	-9.62076
飲み	-9.62086
絶対	-9.62096
日本人	-9.62096
プレイ	-9.62161
気が	-9.62172
ネットワーク	-9.62208
ダウンロード	-9.62249
ワイン	-9.62366
先に	-9.62385
時には	-9.62406
キャラ	-9.62457
団	-9.62475
授業	-9.62536
いっぱい	-9.62544
史	-9.62567
機関	-9.62626
解説	-9.62638
当時	-9.62673
と一緒に	-9.62674
あなた	-9.62679
楽しみ	-9.62713
設備	-9.62714
研修	-9.62742
製造	-9.62766
実施	-9.62801
打ち	-9.62802
豊	-9.62818
ベスト	-9.62926
電子	-9.62959
崎	-9.62994
違い	-9.63051
保	-9.63296
要	-9.63425
それぞれの	-9.63553
情報を	-9.63554
構成	-9.63752
保護	-9.63794
古い	-9.63863
国内	-9.6397
常に	-9.64019
分の	-9.64085
順	-9.64099
池	-9.641
屋根	-9.64113
動物	-9.64145
サー	-9.64166
材料	-9.64169
整備	-9.64173
案	-9.64215
画	-9.6427
ただし	-9.64279
ますが	-9.6432
無理	-9.6442
雄	-9.64476
耳	-9.64535
オン	-9.64695
ガイド	-9.64695
機械	-9.64701
いや	-9.64701
お客様	-9.64706
症状	-9.64752
いって	-9.64807
民	-9.64872
ほしい	-9.64945
極	-9.64961
切	-9.64971
項目	-9.64997
思う	-9.65005
近	-9.65006
球	-9.65108
無い	-9.65184
▁*	-9.65287
保証	-9.65382
さんと	-9.65405
手術	-9.65443
やら	-9.65463
家庭	-9.65475
そのため	-9.65487
ツール	-9.65492
午後	-9.6553
ガン	-9.65598
駐車場	-9.65639
生徒	-9.65674
牛	-9.65721
*	-9.65749
認識	-9.65804
行った	-9.65843
エル	-9.65844
ラーメン	-9.65871
柄	-9.65874
袋	-9.65886
となっている	-9.6591
操作	-9.6598
ロック	-9.66014
百	-9.66021
オー	-9.66074
小さい	-9.66117
逆に	-9.66227
える	-9.66236
幅	-9.66326
要素	-9.66347
なった	-9.66349
そこに	-9.66356
を使った	-9.66376
持って	-9.66388
重要な	-9.66401
ろう	-9.66417
▁F	-9.66442
オリジナル	-9.6649
▁大	-9.66495
世	-9.66498
泉	-9.66528
資格	-9.66531
んですよ	-9.66572
恋愛	-9.66668
時間が	-9.66809
コンテンツ	-9.66844
てる	-9.66878
負担	-9.66956
の中	-9.66982
最終	-9.66986
メイン	-9.67134
モン	-9.67204
細胞	-9.67278
ブラック	-9.67302
講座	-9.67385
計	-9.67396
ママ	-9.67405
毎年	-9.67415
シート	-9.67441
なんだ	-9.67447
仲間	-9.67457
急	-9.67482
利益	-9.67497
現	-9.67641
......	-9.67651
日間	-9.67669
あって	-9.67676
胸	-9.67692
カット	-9.67737
になっています	-9.67747
一日	-9.67748
管	-9.6777
広	-9.67808
難しい	-9.67818
出演	-9.67833
守	-9.67867
^^	-9.67926
まさに	-9.67929
発行	-9.67964
なんと	-9.67982
登場	-9.68005
打	-9.68072
政	-9.6812
はもちろん	-9.68174
まま	-9.68189
せず	-9.68281
最初の	-9.68283
首	-9.68297
シン	-9.6831
彼の	-9.68375
するために	-9.68381
終わり	-9.6845
しかない	-9.68513
事を	-9.68525
地区	-9.68543
来た	-9.68572
com	-9.68577
と共に	-9.68603
買って	-9.6862
を含む	-9.68649
落ち	-9.68719
再生	-9.68778
通販	-9.6883
満足	-9.68901
眼	-9.68991
ed	-9.69023
更に	-9.69075
ころ	-9.69082
雑誌	-9.69087
異	-9.69144
づくり	-9.69177
人と	-9.69223
にくい	-9.69261
韓国	-9.69282
近く	-9.6932
使える	-9.69421
走	-9.69498
ホール	-9.69521
制限	-9.69543
政策	-9.69544
予算	-9.69555
症	-9.6966
庭	-9.69747
ダー	-9.69777
どうしても	-9.69836
つけ	-9.69842
やり	-9.69983
各種	-9.69988
場合には	-9.7003
なども	-9.70035
ライト	-9.70036
専用	-9.70042
km	-9.70105
いろんな	-9.70111
収入	-9.70123
結局	-9.7014
バッグ	-9.70141
バン	-9.70239
デジタル	-9.7032
ヌ	-9.70372
記念	-9.70418
からは	-9.70427
感覚	-9.70457
嬉しい	-9.70458
可	-9.70476
仏	-9.70478
実績	-9.70495
植物	-9.70503
もない	-9.70516
カバー	-9.70552
言って	-9.70578
米国	-9.70592
が必要	-9.70647
必要な	-9.70692
カル	-9.70717
▁あ	-9.70718
像	-9.70729
省	-9.70767
元気	-9.70776
おいしい	-9.70782
書いて	-9.70819
展示	-9.70892
成功	-9.70917
となりました	-9.71
十	-9.71021
趣味	-9.71066
使って	-9.71093
完成	-9.71113
まり	-9.71158
話題	-9.71195
会社の	-9.71285
選	-9.71293
説	-9.71324
』(	-9.71338
公式	-9.7137
値段	-9.71427
ソン	-9.71433
汚れ	-9.7154
トラブル	-9.71581
と言って	-9.71595
切れ	-9.71597
導入	-9.71618
以下の	-9.71685
バンド	-9.71759
なあ	-9.71771
訪問	-9.71793
ベル	-9.71935
発生	-9.71984
ごとに	-9.71986
だったら	-9.7202
たん	-9.72032
全然	-9.72217
もなく	-9.7222
意	-9.72261
スピード	-9.7233
きて	-9.72395
フィ	-9.72428
とにかく	-9.72554
掲示板	-9.72574
読んで	-9.72609
技	-9.7261
すべき	-9.7265
バイク	-9.7271
確かに	-9.72873
之	-9.72874
可愛い	-9.72875
早い	-9.72876
食べる	-9.72883
いろいろな	-9.72891
るのは	-9.72931
娘	-9.73011
TV	-9.73026
っていう	-9.73033
満	-9.73082
としての	-9.73111
ローン	-9.73137
振り	-9.7317
蔵	-9.73175
科学	-9.73179
といえば	-9.73211
シーズン	-9.73258
地震	-9.7327
▁○	-9.73275
こうした	-9.73307
ていく	-9.73323
ニー	-9.73383
脱	-9.73472
町の	-9.73706
大手	-9.73708
パー	-9.73709
DVD	-9.73729
っていた	-9.73754
地元	-9.73778
細	-9.73874
瀬	-9.7388
つつ	-9.73992
ており	-9.74022
もので	-9.74048
永	-9.74078
までの	-9.74104
わけ	-9.74165
らしく	-9.74201
彼は	-9.74231
on	-9.74268
福	-9.74279
聞いて	-9.74386
解	-9.74397
やる	-9.74448
肩	-9.74454
越	-9.74492
―	-9.74518
ものが	-9.7463
をはじめ	-9.74662
ロン	-9.74679
大きい	-9.74709
サロン	-9.74716
友	-9.74743
向	-9.74775
と思い	-9.74806
ar	-9.74821
医	-9.74823
距離	-9.74839
婚活	-9.7484
キャンペーン	-9.74892
ック	-9.74895
群	-9.74939
今年	-9.7497
自転車	-9.75095
することができます	-9.75188
聖	-9.75197
楽しく	-9.75279
プラス	-9.7533
たくさんの	-9.7536
クロ	-9.7537
長く	-9.75373
コスト	-9.75396
一方	-9.75455
霊	-9.75601
したもの	-9.75608
戦略	-9.75625
銀	-9.75631
幸	-9.75632
ストレス	-9.75699
深い	-9.7578
優勝	-9.7612
を使う	-9.76154
に関しては	-9.76184
▁最近	-9.76199
昨年	-9.76229
an	-9.76299
やっと	-9.76334
資金	-9.76349
帯	-9.76349
岡	-9.76362
機器	-9.76419
すぎ	-9.76454
られている	-9.76484
に向けて	-9.7654
週	-9.76567
しばらく	-9.76703
彼女	-9.76715
僕	-9.76795
卵	-9.76801
大丈夫	-9.76837
に対し	-9.76839
評判	-9.76858
みて	-9.76881
藤	-9.76886
いくら	-9.76888
によると	-9.76893
ビデオ	-9.76943
頑張って	-9.76945
はある	-9.76948
せる	-9.76962
人も	-9.77005
を通して	-9.77152
印	-9.77163
港	-9.77237
布	-9.77252
レン	-9.77346
みると	-9.77349
戦争	-9.77459
生まれ	-9.77463
ライフ	-9.77488
▁お問い合わせ	-9.77491
たくさん	-9.77518
大きく	-9.77631
皮	-9.77669
進	-9.7772
ガラス	-9.77728
取得	-9.7775
合わせ	-9.77764
メッセージ	-9.77781
疑問	-9.77782
精神	-9.77784
知らない	-9.77793
皆	-9.77865
さえ	-9.77903
穴	-9.77925
ナー	-9.77998
内に	-9.78031
友達	-9.78055
僕は	-9.78059
得	-9.78062
をした	-9.78079
掛け	-9.78144
痛み	-9.78253
運用	-9.78255
文章	-9.78269
引	-9.78343
十分	-9.7835
来る	-9.784
申請	-9.78405
不足	-9.7843
現実	-9.7847
見た	-9.78541
ビール	-9.7857
過	-9.78573
術	-9.78583
してしまう	-9.78584
上に	-9.78616
龍	-9.787
みた	-9.78716
過去	-9.78761
なって	-9.78777
ではありません	-9.78787
特	-9.78789
込んだ	-9.78795
ちゃ	-9.78867
被害	-9.78889
税	-9.78928
太郎	-9.78965
詳細	-9.79044
加	-9.79047
床	-9.79054
おります	-9.79057
現代	-9.79081
女の子	-9.79088
外壁	-9.79121
ことから	-9.7917
畑	-9.79182
ひとつ	-9.7921
窓	-9.79252
季節	-9.79266
印刷	-9.79268
責任	-9.7927
サッカー	-9.79276
始めた	-9.79298
券	-9.793
人気の	-9.79301
宇宙	-9.79305
トラ	-9.7931
答え	-9.7932
かもしれませんが	-9.79347
に行って	-9.79349
失敗	-9.79352
わかる	-9.79383
昔	-9.79406
若	-9.7943
努力	-9.79552
涙	-9.79608
これで	-9.79651
なくなった	-9.79718
▁ちなみに	-9.7972
ブル	-9.79743
姿	-9.79744
乗り	-9.79848
体制	-9.79867
▁もう	-9.79878
したこと	-9.79979
別に	-9.79999
影響	-9.8
平均	-9.80043
の問題	-9.80057
だと思う	-9.80067
月の	-9.80104
腰	-9.80106
探し	-9.80138
段	-9.80139
あれ	-9.80191
できません	-9.80201
実際	-9.80202
していて	-9.80209
内で	-9.80235
結婚式	-9.80268
展	-9.80355
普通の	-9.80359
正しい	-9.80372
いか	-9.80397
ペット	-9.80485
バイト	-9.80606
en	-9.80619
自宅	-9.80704
常	-9.80738
過ぎ	-9.80787
安心して	-9.80795
漫画	-9.80798
セン	-9.80827
思い出	-9.80852
ようだ	-9.80878
人で	-9.80886
系の	-9.8091
いつ	-9.80916
けれども	-9.80958
ぁ	-9.80975
職員	-9.80982
などに	-9.81008
厳しい	-9.81019
友人	-9.81022
▁H	-9.81069
筋	-9.8109
何を	-9.81267
すぎる	-9.81297
ないので	-9.81331
国民	-9.81355
押し	-9.81367
認定	-9.81396
仕様	-9.81469
労働	-9.81489
ことです	-9.81521
まあ	-9.81534
医師	-9.81558
ヘ	-9.81558
便利	-9.81705
事実	-9.8174
かん	-9.81757
金融	-9.81767
ランチ	-9.81785
みる	-9.81805
以来	-9.81813
麺	-9.81828
レポート	-9.81843
食べて	-9.81852
までは	-9.81892
となっています	-9.81938
いただいた	-9.81959
カレー	-9.81967
諸	-9.81995
来て	-9.82013
事例	-9.82023
ところが	-9.82024
間に	-9.82093
回復	-9.82102
素敵な	-9.82116
再び	-9.82124
フランス	-9.82215
意見	-9.82219
運	-9.82259
簡単	-9.82304
陣	-9.82319
空港	-9.82372
というもの	-9.82463
速	-9.82573
エン	-9.82664
ch	-9.82709
▁D	-9.82767
いう	-9.82847
接続	-9.82856
みました	-9.8286
請求	-9.82902
緑	-9.82936
ステージ	-9.82955
の世界	-9.83039
施工	-9.83066
色々	-9.83131
感染	-9.83148
昨日	-9.83177
走り	-9.83235
などは	-9.83275
造	-9.8328
べき	-9.83381
ジェ	-9.83415
強く	-9.83446
があるので	-9.83448
クリニック	-9.83486
診断	-9.83554
地球	-9.83557
と呼ばれる	-9.83611
事情	-9.83621
屋さん	-9.83625
虫	-9.83638
もらう	-9.83666
鍋	-9.83746
番号	-9.83748
議論	-9.8377
様に	-9.83773
なのですが	-9.83849
のうち	-9.83854
顧客	-9.83863
空気	-9.83891
を持ち	-9.83932
当たり	-9.83977
なくなる	-9.83996
薄	-9.84044
だろ	-9.84075
れた	-9.84103
弁護士	-9.84161
レイ	-9.84163
パワー	-9.84205
明治	-9.84247
装置	-9.84279
はまだ	-9.84294
政治	-9.84314
仕事を	-9.84363
実験	-9.84371
ルーム	-9.84446
を取り	-9.84456
舞台	-9.84458
新規	-9.84486
司	-9.84529
していました	-9.84546
魅力	-9.84621
○	-9.84665
失	-9.84709
薬剤師	-9.84745
興味	-9.84811
縁	-9.84814
ことがあります	-9.84852
トリ	-9.84902
完全	-9.84907
バランス	-9.84912
ライ	-9.84944
を通じて	-9.84951
界	-9.84978
キロ	-9.85028
エンジン	-9.85034
全ての	-9.85115
休	-9.85171
テン	-9.85193
▁G	-9.85194
既に	-9.85217
着物	-9.85262
を行い	-9.85288
ぜ	-9.85299
を受ける	-9.85299
コーナー	-9.85332
洋	-9.85406
続きを読む	-9.85432
年生	-9.85449
身体	-9.85462
ユ	-9.85463
出して	-9.85504
セミナー	-9.85519
難	-9.85593
歩	-9.85594
ダイ	-9.8567
と思いました	-9.85673
マル	-9.85677
お客様の	-9.85688
温	-9.85725
のではないでしょうか	-9.85757
きます	-9.85782
いたら	-9.85786
動	-9.85817
わけです	-9.85849
ルール	-9.85883
Web	-9.85921
出る	-9.85922
もん	-9.85989
沖縄	-9.86043
うち	-9.86069
者が	-9.86075
分野	-9.86081
関西	-9.8609
状	-9.86106
方向	-9.86112
キーワード	-9.86169
後は	-9.86187
出した	-9.86265
ここまで	-9.86286
腹	-9.86286
片	-9.86287
かわいい	-9.86292
設置	-9.86319
発見	-9.86346
交流	-9.86402
を受けた	-9.86503
ける	-9.86552
落	-9.86555
▁新	-9.86571
減	-9.86585
処分	-9.86619
感動	-9.86666
部門	-9.8675
電車	-9.86804
z	-9.8683
遠	-9.86935
つか	-9.86941
講師	-9.86979
底	-9.86988
正直	-9.86994
テーブル	-9.86997
華	-9.87028
ティー	-9.87091
オイル	-9.87113
飛び	-9.87144
とりあえず	-9.87186
▁今回は	-9.87216
▁E	-9.87238
の上	-9.87249
th	-9.8725
億円	-9.87301
小説	-9.87342
ファッション	-9.87365
シャツ	-9.87384
拡大	-9.87416
二人	-9.87437
限り	-9.87543
合う	-9.87553
様子	-9.87556
どんどん	-9.87557
煮	-9.87559
途中	-9.87599
髪	-9.876
かかる	-9.8765
鼻	-9.87671
九	-9.87777
焼	-9.87806
とはいえ	-9.87813
ゆっくり	-9.87819
回り	-9.87835
若い	-9.87868
いただく	-9.87901
マーク	-9.87903
想像	-9.87989
大型	-9.88033
わからない	-9.88107
オフ	-9.88132
っぽい	-9.88158
を作って	-9.8818
キャラクター	-9.88184
ちなみに	-9.88211
モード	-9.88254
卒業	-9.88262
手続き	-9.88281
糸	-9.88313
キャリア	-9.88313
んですね	-9.8835
であろう	-9.88356
連携	-9.88372
ボール	-9.88455
することが	-9.88519
行政	-9.88554
受	-9.88578
アート	-9.88579
隊	-9.88624
悩み	-9.88641
向き	-9.88805
コミュニケーション	-9.8882
URL	-9.88876
氏は	-9.88923
整理	-9.88966
とう	-9.8897
レシピ	-9.88998
売	-9.89002
農業	-9.89019
でしょ	-9.89044
らず	-9.89096
出来ない	-9.89164
は何	-9.89223
視	-9.89247
の方は	-9.89269
スタ	-9.89269
将来	-9.8928
気に	-9.89288
発送	-9.89301
基礎	-9.89509
最後に	-9.89634
まったく	-9.89651
姿勢	-9.89653
ご飯	-9.89661
ありがとう	-9.89692
日から	-9.89702
比	-9.89737
のかな	-9.89761
見える	-9.89814
クラ	-9.8982
余	-9.89888
ダメ	-9.89893
課	-9.89904
配	-9.89941
副	-9.89988
と思っています	-9.90007
提案	-9.90044
納得	-9.90179
感謝	-9.90201
が出る	-9.90205
人物	-9.90239
発言	-9.90297
返済	-9.90311
ブルー	-9.90334
建	-9.90356
させていただきます	-9.90453
勤務	-9.90468
破	-9.90497
危険	-9.90596
バイ	-9.90646
ヴィ	-9.90702
最初に	-9.90741
鬼	-9.90759
いった	-9.908
まち	-9.90858
かい	-9.90929
ませんでした	-9.90954
枠	-9.90961
徳	-9.9098
反	-9.91141
性能	-9.91156
禁止	-9.91181
クリーム	-9.91211
栄養	-9.9124
突然	-9.91244
だけの	-9.91286
老	-9.913
梅	-9.91369
ベース	-9.91413
んだよ	-9.91413
以前	-9.91427
ダウン	-9.91442
可能性	-9.91458
跡	-9.9148
向上	-9.91484
痛	-9.91552
品質	-9.91563
ったり	-9.91576
ランド	-9.91621
精	-9.91646
行う	-9.91655
あなたが	-9.91683
余裕	-9.91689
世界の	-9.91748
するのが	-9.91761
地域の	-9.91765
患者	-9.91863
圧	-9.91901
世代	-9.91935
もう少し	-9.91951
受付	-9.91961
ぃ	-9.91969
le	-9.91995
ザー	-9.92029
法律	-9.92099
書類	-9.92117
お問い合わせ	-9.9214
からです	-9.92153
今日の	-9.92259
JR	-9.92264
少年	-9.92267
てしまった	-9.9231
美容	-9.92371
始め	-9.92407
会話	-9.92418
なんで	-9.92429
東京都	-9.92473
異なる	-9.92473
車両	-9.92483
時計	-9.92612
粉	-9.92636
れない	-9.92638
ということは	-9.92709
神戸	-9.92713
こんなに	-9.9272
合格	-9.92745
がん	-9.92766
助	-9.92778
工	-9.92802
億	-9.92847
飯	-9.92912
何度も	-9.92924
九州	-9.92927
CM	-9.92942
ショー	-9.92997
そんなに	-9.93036
完了	-9.93051
ないと	-9.93077
教授	-9.93092
送料無料	-9.93151
ありました	-9.93185
福岡	-9.93247
結	-9.93261
受験	-9.93299
天気	-9.93334
注目	-9.93345
状態で	-9.93374
広く	-9.93379
いきます	-9.93454
を受けて	-9.93484
近い	-9.93505
も多く	-9.93517
雇用	-9.93528
政府	-9.93549
の写真	-9.9357
ニュー	-9.93713
スキル	-9.93811
FX	-9.93833
el	-9.93863
くれ	-9.93886
能	-9.93914
ボタン	-9.93916
宗	-9.93918
防止	-9.94018
ハン	-9.94079
アジア	-9.94123
広島	-9.94145
られない	-9.94272
注	-9.94278
信頼	-9.94334
の流れ	-9.94432
休み	-9.94527
特集	-9.9456
浦	-9.94571
現場	-9.94603
伝	-9.94633
クリスマス	-9.94692
住	-9.94701
皆さん	-9.94714
時間を	-9.94732
ということです	-9.9476
ですし	-9.948
利用者	-9.94828
お茶	-9.94835
サイド	-9.94835
勝ち	-9.94848
してます	-9.94884
実践	-9.94897
製作	-9.95022
ていない	-9.95029
なんとか	-9.95121
俺	-9.95175
影	-9.95246
現状	-9.95249
ジー	-9.95285
交通	-9.95288
目を	-9.95308
言語	-9.9532
酸	-9.95324
有名	-9.95327
天然	-9.95345
してから	-9.95399
チン	-9.9545
明日	-9.95486
高く	-9.95488
まだまだ	-9.95493
ご利用	-9.95507
に合わせて	-9.95536
証	-9.95563
残り	-9.95575
先輩	-9.95596
考える	-9.95661
ブラ	-9.95716
宿泊	-9.95887
予防	-9.95947
が無い	-9.95953
■	-9.95972
数字	-9.95976
書いた	-9.95986
名古屋	-9.96019
損	-9.96052
位置	-9.96094
ざ	-9.96156
ていました	-9.96219
くれた	-9.96219
にする	-9.96236
削除	-9.96255
すぎて	-9.963
党	-9.96309
固定	-9.96393
チャンス	-9.96426
ガー	-9.96462
お願いします	-9.96475
主に	-9.96476
宝	-9.96485
の高い	-9.9649
議員	-9.96541
サイ	-9.96549
んですよね	-9.96572
国の	-9.96575
」、「	-9.96583
はずです	-9.96598
自動	-9.9663
ケーキ	-9.96697
ついて	-9.96705
ペン	-9.9674
ルー	-9.96749
会長	-9.96787
いわゆる	-9.96795
ピアノ	-9.96838
反対	-9.96905
メリット	-9.96936
歩き	-9.96939
張り	-9.96963
なんです	-9.9697
弁	-9.97023
短	-9.97118
段階	-9.97199
キャッシング	-9.97203
ワーク	-9.97203
氏の	-9.97216
ミス	-9.97244
いません	-9.97297
に関して	-9.97308
OS	-9.97393
あい	-9.97395
深く	-9.97403
インド	-9.97498
際	-9.97516
工業	-9.97551
▁R	-9.97581
くて	-9.97594
自ら	-9.97601
▁>>	-9.97616
もしくは	-9.97676
性格	-9.97696
投票	-9.97716
キャ	-9.97732
表情	-9.97744
▁by	-9.97804
横浜	-9.97815
レッスン	-9.97818
バラ	-9.97843
いれば	-9.97866
安く	-9.97898
白い	-9.9791
今後の	-9.97919
しやすい	-9.97987
陽	-9.97987
感想	-9.97989
以降	-9.97991
▁K	-9.98013
▁東京	-9.98049
チケット	-9.98095
住民	-9.98102
巻き	-9.98179
用意	-9.98195
スポット	-9.98243
続き	-9.98256
出発	-9.98329
選挙	-9.98335
者は	-9.98351
そのような	-9.98354
ラジオ	-9.9844
疲れ	-9.9844
報	-9.9847
修正	-9.98478
連続	-9.98551
抜け	-9.98582
派遣	-9.98621
速度	-9.98639
借金	-9.98663
をもって	-9.98791
払い	-9.98837
の情報	-9.98859
事が	-9.98883
実行	-9.9893
作って	-9.98936
までに	-9.98946
co	-9.98955
まるで	-9.99023
最新	-9.99035
致します	-9.99043
善	-9.99056
める	-9.99121
ビー	-9.99132
普段	-9.99164
教えて	-9.99205
なくても	-9.9922
許可	-9.99324
子さん	-9.99331
の違い	-9.99334
複数の	-9.99336
完全に	-9.99341
下の	-9.99352
つい	-9.9948
半分	-9.99527
IC	-9.99538
万人	-9.99568
させた	-9.99574
いても	-9.99602
の間	-9.9961
瞬間	-9.99653
それで	-9.99716
コー	-9.99768
とのこと	-9.99778
矢	-9.99806
トレーニング	-9.99846
香り	-9.99856
の特徴	-9.9988
のではないか	-9.99881
メートル	-9.99885
オススメ	-9.99964
ドイツ	-10
自信	-10.0001
お話	-10.0002
出版	-10.0006
参加者	-10.0009
がいい	-10.0014
乾燥	-10.0014
雑	-10.0016
ぇ	-10.002
最	-10.0023
改めて	-10.0024
するための	-10.0025
福祉	-10.0026
ないように	-10.0027
きちんと	-10.0028
ノー	-10.0031
同時に	-10.004
アー	-10.0045
お願い	-10.0048
関係者	-10.005
を探す	-10.0051
っています	-10.0053
パス	-10.0053
によっては	-10.0055
こちらの	-10.0059
キッチン	-10.0061
実現	-10.0061
軽	-10.0063
資産	-10.0067
しまいました	-10.0068
替え	-10.0073
終	-10.0073
プラ	-10.0075
融資	-10.0076
に入る	-10.0076
スープ	-10.0078
笑顔	-10.0079
ぽ	-10.008
塾	-10.0086
在	-10.0087
アルバイト	-10.0087
盤	-10.009
泊	-10.009
健	-10.0099
に戻る	-10.01
みたいです	-10.0104
目の	-10.0109
祭り	-10.0111
もいい	-10.0113
買い物	-10.0119
姫	-10.0124
が良い	-10.0125
ストーリー	-10.0131
奴	-10.0133
純	-10.0134
脚	-10.014
▁W	-10.0147
当日	-10.0153
今年は	-10.0159
パターン	-10.0163
ピン	-10.0164
やつ	-10.0164
誰	-10.0167
優しい	-10.0172
先日	-10.0174
模様	-10.0184
ちょうど	-10.0185
グリーン	-10.0185
念	-10.0187
源	-10.0188
殺	-10.0191
長期	-10.0192
温度	-10.0196
の良い	-10.0203
逃げ	-10.0204
共同	-10.0204
推進	-10.0205
重要	-10.0212
むしろ	-10.0212
佐	-10.0215
せん	-10.022
児	-10.022
感情	-10.0223
後半	-10.0223
の大	-10.0224
殿	-10.0225
リーグ	-10.0231
の歴史	-10.0237
人材	-10.0237
安定	-10.0239
当社	-10.0242
就職	-10.0244
高速	-10.0245
末	-10.0246
それから	-10.0249
兵	-10.0249
の一部	-10.0251
うまく	-10.0253
選び	-10.0254
嫌	-10.0255
演	-10.0257
事務	-10.0263
からも	-10.0266
奈	-10.0268
しましたが	-10.0268
人を	-10.027
の花	-10.0273
私たち	-10.0274
複数	-10.0277
方に	-10.0281
炎	-10.0286
に参加	-10.0287
神経	-10.0293
にあった	-10.0305
ソース	-10.0314
言った	-10.0319
いたので	-10.0319
報道	-10.032
収納	-10.0329
上昇	-10.033
家に	-10.033
しません	-10.0331
乱	-10.0331
が悪い	-10.0335
私たちは	-10.0339
るように	-10.034
たく	-10.0341
職場	-10.0342
クリ	-10.0343
デビュー	-10.0344
発展	-10.0344
可能な	-10.0344
その他の	-10.0347
誌	-10.0348
まぁ	-10.0348
すら	-10.0348
お知らせ	-10.0354
第二	-10.0356
そもそも	-10.0357
出て	-10.0359
的には	-10.0361
しっかりと	-10.0362
に入って	-10.0366
彦	-10.0368
ID	-10.0368
相当	-10.0373
送	-10.0379
▁あと	-10.0386
読	-10.0386
見積もり	-10.039
パック	-10.0399
金利	-10.0401
はとても	-10.0401
内部	-10.0404
仁	-10.041
ゲスト	-10.042
列	-10.0422
即	-10.0423
脇	-10.043
動作	-10.0432
とこ	-10.0435
にとっては	-10.0435
に近い	-10.0436
公演	-10.0438
ロード	-10.0439
委員	-10.0444
※	-10.0452
事項	-10.0454
車の	-10.0454
ルート	-10.0455
よし	-10.0456
となって	-10.0471
放	-10.0472
のもの	-10.0474
を持っている	-10.0479
が必要です	-10.0485
寒	-10.0486
色の	-10.0489
軽く	-10.0491
色々な	-10.0494
ようやく	-10.0499
昼	-10.0499
ゼロ	-10.05
しゃ	-10.0501
貴	-10.0505
待ち	-10.0512
全員	-10.0513
ダン	-10.0514
住所	-10.0516
広い	-10.0521
かけて	-10.0523
ぶり	-10.0524
ごと	-10.0524
が一番	-10.0524
恵	-10.0527
仲	-10.0528
出張	-10.0529
いただき	-10.0529
皆様	-10.0532
ゆう	-10.0543
だけに	-10.0546
具	-10.0548
新宿	-10.0552
の一つ	-10.0553
夫婦	-10.0561
ホワイト	-10.0562
在庫	-10.0563
事は	-10.0571
メン	-10.0574
冷	-10.0577
軸	-10.0578
インタビュー	-10.0581
フェ	-10.0582
彼	-10.0585
するため	-10.0585
手を	-10.0586
共	-10.0602
▁その他	-10.0602
周り	-10.0602
現在は	-10.0603
砂	-10.0613
当時の	-10.062
おそらく	-10.0623
年代	-10.0629
▁本	-10.0633
息子	-10.0642
育毛剤	-10.0644
消費	-10.0645
澤	-10.0655
応募	-10.0655
をお	-10.0658
秀	-10.0661
してしまった	-10.0665
今度は	-10.0665
枝	-10.0672
を選ぶ	-10.0673
被	-10.0673
思った	-10.0679
してきました	-10.068
続ける	-10.0681
ご注文	-10.0689
負け	-10.0694
なければならない	-10.0695
札幌	-10.0696
ダム	-10.0696
かた	-10.0697
らん	-10.0703
うちに	-10.0704
もともと	-10.0704
河	-10.0705
j	-10.0709
方針	-10.071
人口	-10.0711
作家	-10.0716
取材	-10.0717
氷	-10.0721
▁→	-10.0722
農	-10.0729
自分は	-10.0738
人たち	-10.0742
無し	-10.0748
自分に	-10.075
交	-10.075
売る	-10.0752
倉	-10.0755
することは	-10.0756
本体	-10.0765
と思われる	-10.0768
チェ	-10.0768
弊社	-10.0769
爆	-10.0785
他にも	-10.0788
it	-10.0792
入って	-10.0799
返	-10.0799
でございます	-10.08
ずつ	-10.08
しま	-10.0807
施術	-10.0814
聞き	-10.0814
基	-10.082
分け	-10.0828
▁ブログ	-10.0833
改革	-10.0838
柱	-10.0839
▁コメント	-10.0845
オフィス	-10.0849
ごろ	-10.0851
を目指す	-10.0852
を紹介	-10.0854
回転	-10.0856
やった	-10.0861
普通に	-10.0862
防	-10.0864
!?	-10.0865
怖い	-10.0871
引越し	-10.0872
ダンス	-10.0877
収録	-10.0878
▁L	-10.0881
苦労	-10.0882
郷	-10.0883
先生の	-10.0884
風景	-10.089
▁J	-10.089
●	-10.0891
だけではなく	-10.0892
作用	-10.0899
et	-10.0899
していきます	-10.09
離	-10.0902
著	-10.0903
グルメ	-10.0904
ジャンル	-10.0905
激	-10.0909
靴	-10.0911
時代の	-10.0917
箇所	-10.0918
の声	-10.092
留	-10.0924
傾向	-10.0926
ッと	-10.0926
幼稚園	-10.0928
時点で	-10.0928
あらゆる	-10.0929
項	-10.0931
グッズ	-10.0932
勝利	-10.0933
ければ	-10.094
そこから	-10.0945
退	-10.0953
手法	-10.0953
関東	-10.0957
僕の	-10.0958
▁これ	-10.0959
セル	-10.096
▁まあ	-10.0961
芸術	-10.0979
滝	-10.0979
CO	-10.098
▁現在	-10.0983
申し込み	-10.0987
続く	-10.0992
ためには	-10.0994
也	-10.0999
用品	-10.1001
心の	-10.1002
範囲	-10.1002
であること	-10.1006
液	-10.1012
息	-10.1014
現地	-10.1014
岳	-10.1019
時から	-10.102
よろしくお願いします	-10.1023
するには	-10.1026
無料で	-10.103
苦	-10.1034
杯	-10.1036
の名前	-10.1037
中古	-10.1038
日目	-10.104
上がり	-10.104
岸	-10.1041
ぅ	-10.1052
するか	-10.1054
トロ	-10.106
ほどの	-10.1061
についても	-10.1064
エコ	-10.1067
スキー	-10.1067
NHK	-10.1068
いますが	-10.1072
背景	-10.1076
最初は	-10.1077
働き	-10.108
礼	-10.1087
の記事	-10.1092
こっち	-10.1097
菌	-10.1099
日常	-10.1102
みなさん	-10.1104
取り組み	-10.1106
隠	-10.1107
庁	-10.1111
菜	-10.1111
背	-10.1114
のほうが	-10.1114
一気に	-10.1117
されており	-10.1117
いたしました	-10.1119
やま	-10.112
杉	-10.1122
たくない	-10.1125
が少ない	-10.1128
初期	-10.1129
乳	-10.1131
見た目	-10.1131
ミー	-10.1133
周	-10.1142
こともあります	-10.1147
ベッド	-10.1162
策	-10.1167
遊	-10.1169
キン	-10.1187
▁それは	-10.1196
買う	-10.1197
記載	-10.1197
剣	-10.1201
▁ちょっと	-10.1205
丁寧に	-10.1209
月から	-10.1211
であります	-10.1215
国家	-10.1216
どのように	-10.1216
詩	-10.1218
主義	-10.1222
介	-10.1222
生き	-10.1222
きっかけ	-10.1223
〉	-10.1226
特定	-10.1228
立て	-10.1232
PS	-10.1232
大切な	-10.1234
ここから	-10.1246
ことがある	-10.1249
喜	-10.1249
キング	-10.125
有名な	-10.1252
そういった	-10.1253
イタリア	-10.1254
会計	-10.1257
うどん	-10.1263
ようになりました	-10.1265
形成	-10.1271
もらった	-10.1276
まって	-10.1279
▁こんな	-10.1282
中学校	-10.1289
規模	-10.1291
規制	-10.1291
優	-10.1294
するという	-10.13
児童	-10.13
ギター	-10.1301
まい	-10.1302
どうして	-10.1304
ゴール	-10.1309
を利用して	-10.1313
食材	-10.1314
最新の	-10.1319
確実に	-10.1321
進行	-10.1322
un	-10.1323
高齢者	-10.1323
にならない	-10.1325
参考	-10.1327
話を	-10.1329
ロシア	-10.1334
測定	-10.1334
レンタル	-10.1337
美術館	-10.1342
楽器	-10.1346
ります	-10.1351
工夫	-10.1353
生地	-10.1355
なっている	-10.1356
おお	-10.1358
少ない	-10.1359
刺激	-10.1361
リーダー	-10.1362
お金を	-10.1364
指摘	-10.1365
子育て	-10.1366
高級	-10.1367
お酒	-10.137
天井	-10.1373
表面	-10.1373
を見た	-10.1376
交渉	-10.1377
作った	-10.1381
種類の	-10.1382
置き	-10.1384
しまい	-10.1386
st	-10.1386
手数料	-10.1387
コピー	-10.1387
平和	-10.1394
を見ると	-10.1398
ナビ	-10.1403
送料	-10.1405
多分	-10.1405
抜き	-10.1406
する事	-10.1408
の種類	-10.1408
竜	-10.1409
聞いた	-10.1411
歳の	-10.1412
見積	-10.1413
イラスト	-10.1416
看護師	-10.1421
▁ア	-10.1423
がいる	-10.1423
アリ	-10.1426
掃除	-10.1428
読む	-10.1429
これも	-10.1438
はかなり	-10.1438
外国人	-10.1444
初心者	-10.1445
密	-10.1445
を感じる	-10.1446
前から	-10.1447
ヨーロッパ	-10.1448
ジン	-10.145
前後	-10.1463
バージョン	-10.1467
シングル	-10.1468
アウト	-10.147
明らかに	-10.1475
歩いて	-10.1476
▁小	-10.1484
ここでは	-10.1486
を超える	-10.1494
いきなり	-10.1497
ようになった	-10.1497
マスター	-10.1498
到着	-10.1498
回目	-10.1502
比較的	-10.1503
一応	-10.1506
もらえる	-10.1506
智	-10.1508
何とか	-10.1511
野球	-10.1514
筋肉	-10.1516
わけで	-10.1516
甲	-10.1516
かと	-10.1517
寒い	-10.1522
方式	-10.1522
タイミング	-10.1523
てくれる	-10.1524
栽培	-10.1526
陰	-10.1526
兄	-10.1527
扱い	-10.1527
セキュリティ	-10.1527
富	-10.1533
と思いますが	-10.1534
舞	-10.1535
ゴルフ	-10.154
我	-10.1541
研究所	-10.1543
さんも	-10.1543
の内容	-10.1546
丁目	-10.1552
支払	-10.1553
▁the	-10.1555
の開発	-10.1556
グル	-10.1561
だけでも	-10.1561
はあまり	-10.1562
モバイル	-10.1564
なか	-10.1567
ur	-10.1569
伝統	-10.1572
クリア	-10.1572
学部	-10.1574
〈	-10.1577
ブロック	-10.1579
化学	-10.1579
面接	-10.158
カラ	-10.1582
観察	-10.1583
PR	-10.1587
新たに	-10.1589
折	-10.1591
罪	-10.1593
さて	-10.1593
継続	-10.1595
ログイン	-10.1597
もあった	-10.1598
アドバイス	-10.1599
についての	-10.1601
コンサート	-10.1601
一人で	-10.1603
商	-10.1609
にかけて	-10.1611
の方に	-10.1613
送信	-10.1614
挨拶	-10.1616
それも	-10.1617
太陽	-10.162
任	-10.1623
ドライブ	-10.1624
de	-10.163
ところに	-10.1637
ほうが	-10.1638
いましたが	-10.1645
レンズ	-10.1649
ング	-10.1651
ねー	-10.1655
起	-10.1657
▁もちろん	-10.1658
マッサージ	-10.1658
退職	-10.1661
領域	-10.1661
句	-10.1664
▁今日の	-10.1674
下げ	-10.1677
手作り	-10.168
せっかく	-10.1683
ma	-10.1685
黄	-10.1686
さない	-10.1689
▁私の	-10.169
廃	-10.1695
の上に	-10.1698
盛り	-10.1699
出場	-10.1701
できれば	-10.1701
▁まぁ	-10.1702
▁"	-10.1705
を考える	-10.1706
ックス	-10.1707
柳	-10.171
当たり前	-10.1712
切手	-10.1713
少しでも	-10.1714
づ	-10.1716
停止	-10.1719
力を	-10.172
そうで	-10.1721
を入れて	-10.1721
お前	-10.1725
企業の	-10.1726
部品	-10.1731
ぱ	-10.1733
夏の	-10.1736
詰め	-10.1738
分かる	-10.174
しょう	-10.174
ついに	-10.1741
現象	-10.1742
家具	-10.1744
ねえ	-10.1746
世の中	-10.1747
書き込み	-10.1748
簡単な	-10.1749
豊かな	-10.1751
理論	-10.1756
お勧め	-10.176
れて	-10.1761
ボード	-10.1762
これからも	-10.1764
が可能	-10.1765
需要	-10.1766
彩	-10.1772
乗	-10.1773
定期	-10.1778
療法	-10.1779
の結果	-10.1781
下記	-10.1785
本人	-10.1786
決して	-10.1792
メイク	-10.1796
▁I	-10.1799
分からない	-10.1804
これら	-10.1805
ーン	-10.1805
稲	-10.1807
クロス	-10.1808
No	-10.181
散	-10.1811
挑戦	-10.1813
したのは	-10.1814
re	-10.1815
のであれば	-10.1816
ノート	-10.1819
疾患	-10.1823
SA	-10.1823
揚げ	-10.1823
型の	-10.1824
ra	-10.1825
コート	-10.1827
を経て	-10.1828
批判	-10.1828
最高の	-10.1831
できて	-10.1832
に行った	-10.1833
だろうか	-10.1834
持	-10.1835
そこ	-10.1837
止め	-10.1841
タイプの	-10.1847
担当者	-10.1847
でもある	-10.1848
女性の	-10.1848
方面	-10.1849
話し	-10.1851
んですか	-10.1852
人間の	-10.1852
ール	-10.1855
パパ	-10.186
市長	-10.186
の意味	-10.1861
積	-10.1862
生命	-10.187
たか	-10.187
とり	-10.1871
勝手に	-10.1872
スクール	-10.1877
相手の	-10.1884
なんだか	-10.189
が出て	-10.1892
のだろう	-10.1895
ことになる	-10.1896
世紀	-10.1897
の中でも	-10.1903
復活	-10.1905
が違う	-10.1906
ボディ	-10.1906
RE	-10.1909
した場合	-10.1909
形で	-10.191
りと	-10.1911
ケン	-10.1911
私たちの	-10.1919
解析	-10.1921
顔を	-10.1922
▁平成	-10.1928
AI	-10.1929
事前に	-10.193
先の	-10.1936
少女	-10.1939
初の	-10.1941
台湾	-10.1943
喜び	-10.1944
そのもの	-10.1949
標準	-10.195
フォーム	-10.1951
全体	-10.1952
演出	-10.1954
自体	-10.1956
▁いつも	-10.1957
全体の	-10.1957
ほう	-10.1964
まった	-10.1964
最近は	-10.1967
済み	-10.1968
一体	-10.1968
マスク	-10.1969
桃	-10.1976
栄	-10.1977
装	-10.1978
カップ	-10.1982
を出す	-10.1987
凄い	-10.1988
ひとり	-10.1991
賃貸	-10.1995
さすがに	-10.2003
列車	-10.2004
格安	-10.2006
誰か	-10.2007
▁さらに	-10.2007
集団	-10.2008
共有	-10.201
短い	-10.2011
の仕事	-10.2012
コンビニ	-10.2013
追	-10.2016
が高く	-10.2017
側の	-10.2018
一言	-10.202
荒	-10.2021
しん	-10.2021
方々	-10.2025
魂	-10.2027
パリ	-10.2028
形式	-10.2031
変わる	-10.2039
景色	-10.2043
という言葉	-10.2044
されること	-10.2046
ジョ	-10.2055
山の	-10.2057
手間	-10.2063
自社	-10.2065
▁☆	-10.2065
鍵	-10.2068
年以上	-10.2069
格	-10.2069
毎月	-10.2072
閲覧	-10.2074
写	-10.2076
携帯電話	-10.2077
甘	-10.208
においては	-10.2081
▁N	-10.2081
ちゃんの	-10.2082
▁of	-10.2082
学会	-10.2086
見え	-10.2092
IN	-10.2097
といっても	-10.21
書く	-10.2103
エステ	-10.211
辺	-10.2111
金属	-10.2112
日本で	-10.2112
妊娠	-10.2116
知って	-10.212
次に	-10.2121
いただきました	-10.2122
ものである	-10.2126
異常	-10.2132
仕上げ	-10.2143
検証	-10.2148
赤ちゃん	-10.2149
静	-10.2149
の原因	-10.215
他に	-10.2154
遠く	-10.2159
なります	-10.2159
フード	-10.2161
冊	-10.2165
方の	-10.2166
接	-10.217
図書館	-10.2171
休日	-10.2173
変わり	-10.2174
権利	-10.2174
早速	-10.2177
ゆく	-10.2177
成果	-10.2184
もっとも	-10.2187
んじゃ	-10.2192
することができる	-10.2193
の中から	-10.2197
なのだ	-10.2198
jp	-10.2204
の方々	-10.2207
されていない	-10.2216
伊	-10.2216
▁先日	-10.2219
作る	-10.2223
相手に	-10.2225
手に	-10.2228
灯	-10.223
以外	-10.223
体の	-10.2232
手段	-10.2233
最大の	-10.2233
教え	-10.2239
感じる	-10.2245
ひろ	-10.2249
のだろうか	-10.2252
低い	-10.2253
願	-10.2254
がありません	-10.2256
▁しかも	-10.2261
ませ	-10.2262
道具	-10.2264
納	-10.2264
ならない	-10.2269
TO	-10.2276
のご案内	-10.2279
んだろう	-10.228
日は	-10.2281
アーティスト	-10.2281
独自の	-10.2282
そこまで	-10.2283
適用	-10.2285
がありますが	-10.2285
流行	-10.2287
お母さん	-10.2287
実際の	-10.2288
ボックス	-10.2291
だからこそ	-10.2291
災害	-10.2293
試	-10.2299
保育園	-10.2301
プリ	-10.2304
仕	-10.2307
魔	-10.2308
又	-10.2308
もり	-10.231
近年	-10.2313
の間に	-10.2315
男子	-10.2316
いくつか	-10.2319
詳しく	-10.2321
ドア	-10.2321
方も	-10.2328
帰り	-10.2328
▁いや	-10.2332
続けて	-10.2334
がよく	-10.2334
頭皮	-10.2339
を行った	-10.2346
パーティー	-10.2355
訓練	-10.2355
がなく	-10.2357
文書	-10.2359
になってしまう	-10.236
°	-10.236
沼	-10.2363
皮膚	-10.237
追い	-10.2374
みんなで	-10.2377
けん	-10.238
進化	-10.2381
MA	-10.2381
マス	-10.2388
紀	-10.2394
目が	-10.2394
初めての	-10.2395
に乗って	-10.2404
路線	-10.2405
共通	-10.2413
しく	-10.2415
たちが	-10.2417
お客さん	-10.242
氏が	-10.2423
買った	-10.2428
これだけ	-10.2428
割引	-10.2431
こだわり	-10.2432
不思議	-10.2432
制御	-10.2433
強化	-10.2437
従	-10.2438
入院	-10.2443
示	-10.2443
▁私も	-10.2444
警察	-10.2446
維持	-10.2447
ますね	-10.2449
進む	-10.2449
母親	-10.2455
パート	-10.2455
物質	-10.2455
込め	-10.2461
便利な	-10.2461
ちゃう	-10.2462
実感	-10.2462
パーツ	-10.2469
阿	-10.2471
わない	-10.2475
しているので	-10.2475
場合があります	-10.2483
ゴミ	-10.2484
テキスト	-10.2487
働く	-10.2487
困難	-10.2494
知事	-10.2496
笑い	-10.2499
▁»	-10.25
たった	-10.2503
一つの	-10.2506
子の	-10.2507
^	-10.2508
割り	-10.2509
やすく	-10.2514
さが	-10.2515
徒歩	-10.252
あん	-10.2522
体重	-10.2523
問	-10.2523
駅から	-10.2526
回数	-10.2527
ショッピング	-10.2528
把握	-10.2528
に来て	-10.2542
らい	-10.2548
講演	-10.2553
コレ	-10.2555
専門店	-10.2558
に向かって	-10.2559
どういう	-10.2563
いるので	-10.2563
まん	-10.2566
久しぶりに	-10.2567
プロセス	-10.2574
従業員	-10.2575
ジョン	-10.2575
気軽に	-10.2576
風呂	-10.2577
患者さん	-10.2582
人数	-10.2586
食べ物	-10.2589
塔	-10.2591
タイヤ	-10.2596
給	-10.2596
詳しい	-10.2597
お届け	-10.2599
たま	-10.2599
論文	-10.2608
不要	-10.2608
広場	-10.2608
欠	-10.2611
られます	-10.2614
鏡	-10.2618
返信	-10.2618
市内	-10.2618
駅前	-10.2619
修	-10.2619
ビタミン	-10.2621
とその	-10.2622
創	-10.2622
要求	-10.2626
要因	-10.2627
うん	-10.263
紅	-10.2632
調理	-10.2636
設立	-10.2638
なー	-10.264
ソフトウェア	-10.2641
それだけ	-10.2642
江戸	-10.2648
翌日	-10.2649
一方で	-10.2649
近くの	-10.265
せずに	-10.2652
盛	-10.2653
スタジオ	-10.2655
潮	-10.2657
場面	-10.2658
を実現	-10.2663
外部	-10.2665
核	-10.2666
効率	-10.2667
豆	-10.2673
豚	-10.2688
できるだけ	-10.2688
佐藤	-10.2688
ご紹介	-10.2691
ていて	-10.2692
してくれた	-10.2692
kg	-10.2696
駅の	-10.2698
どこか	-10.2699
▁まず	-10.2703
関心	-10.2703
降	-10.2704
何が	-10.2705
ものだ	-10.2712
高校生	-10.2719
ようと	-10.272
▁おすすめ	-10.2722
匹	-10.2725
クリック	-10.2727
はどう	-10.2729
こともある	-10.2731
に必要な	-10.2733
と思っている	-10.2734
輸入	-10.274
粒	-10.2742
生きる	-10.2742
に対応	-10.2744
全身	-10.2745
たかった	-10.2746
の変化	-10.2746
というのも	-10.2746
マーケティング	-10.2755
思って	-10.2755
音が	-10.2755
考え方	-10.276
見えない	-10.2762
いき	-10.2763
車で	-10.2766
留学	-10.2771
堀	-10.2772
する方法	-10.2773
シャンプー	-10.2773
情	-10.2774
仕組み	-10.2774
くらいの	-10.2775
東北	-10.2775
あげ	-10.2781
リリース	-10.2781
週末	-10.2785
マップ	-10.2789
たちの	-10.2793
◆	-10.2797
降り	-10.2798
ON	-10.2798
せい	-10.2805
オレ	-10.2805
男女	-10.2809
後ろ	-10.2813
の利用	-10.2816
削減	-10.2816
いただける	-10.2818
】【	-10.282
がとても	-10.2821
CA	-10.2823
博物館	-10.2823
るべき	-10.2824
市で	-10.2826
かわ	-10.2828
パーク	-10.2829
出力	-10.283
忘れ	-10.2831
供給	-10.2832
立場	-10.2833
▁今日	-10.2835
しまいます	-10.284
だったり	-10.2841
おき	-10.2841
――	-10.2843
改正	-10.2845
コントロール	-10.2845
に出	-10.2849
なぜか	-10.2849
数は	-10.285
▁そこで	-10.2856
田中	-10.2857
ドン	-10.2859
できるように	-10.2862
辛い	-10.2862
売買	-10.2863
ピー	-10.2875
XXXX	-10.2881
しないと	-10.2881
▁今回の	-10.2882
の影響	-10.2883
緊張	-10.2883
ぉ	-10.2892
回収	-10.2897
ぴ	-10.2897
ブック	-10.2903
のである	-10.2903
ジャパン	-10.2904
│	-10.2911
心を	-10.2911
際に	-10.2912
経過	-10.2914
配合	-10.2923
入学	-10.2923
富士	-10.2927
▁特に	-10.2931
成績	-10.2933
下り	-10.2933
いつでも	-10.2935
ゾ	-10.2935
してた	-10.2935
るので	-10.2935
お菓子	-10.2942
オプション	-10.2944
プール	-10.2946
っこ	-10.2946
午前	-10.2949
のまま	-10.295
必要があります	-10.295
勢	-10.2954
増加	-10.2955
思わず	-10.2957
トー	-10.2957
室内	-10.2958
共に	-10.2958
お客様に	-10.2958
緊急	-10.296
の状態	-10.296
して下さい	-10.2962
提出	-10.2972
調子	-10.2975
ミン	-10.2979
ともに	-10.2984
診療	-10.2985
me	-10.2985
の紹介	-10.299
カテゴリ	-10.299
千葉	-10.2994
配送	-10.2995
楽天	-10.2995
ッチ	-10.2998
住まい	-10.2998
途中で	-10.2998
職業	-10.2999
学園	-10.3
くなる	-10.3001
ーズ	-10.3005
パートナー	-10.3006
夕方	-10.3008
航空	-10.301
置	-10.3016
多少	-10.3017
単	-10.302
貴重な	-10.302
みたいに	-10.3024
始めて	-10.3026
少しずつ	-10.3028
食い	-10.3028
圏	-10.3031
てくる	-10.3039
なんですが	-10.3039
絶対に	-10.304
ブリ	-10.3043
バカ	-10.3044
ヒット	-10.3044
ウィ	-10.3044
配置	-10.3046
本社	-10.3047
クレジットカード	-10.3047
電源	-10.3051
ショ	-10.3052
晴れ	-10.3053
ヘア	-10.3055
味わい	-10.3056
主人公	-10.306
ある程度	-10.3064
消費者	-10.3068
が出	-10.3069
めて	-10.3069
間の	-10.3072
時間は	-10.3073
域	-10.3073
資源	-10.3076
わけではない	-10.3078
どこ	-10.3081
ic	-10.3083
部の	-10.3091
ております	-10.3093
いなかった	-10.3107
俺は	-10.311
SE	-10.3111
必要がある	-10.3112
隆	-10.3112
登	-10.3117
ヶ	-10.3119
積極的に	-10.3119
iPhone	-10.312
何でも	-10.3121
年から	-10.3125
妹	-10.3134
補修	-10.3137
以上に	-10.3139
独立	-10.3141
塗料	-10.3144
道を	-10.3148
所属	-10.3148
オーバー	-10.3149
ッド	-10.315
誰も	-10.3151
有効	-10.3152
予測	-10.3153
毎回	-10.3159
微	-10.3162
麻	-10.3164
を使い	-10.3165
と同時に	-10.3166
離婚	-10.3166
参照	-10.3166
に入った	-10.3169
たぶん	-10.3171
台風	-10.3171
映	-10.3171
調べ	-10.3177
読者	-10.3178
臭	-10.3179
郎	-10.3183
お風呂	-10.3183
やや	-10.3186
学び	-10.3189
機種	-10.3189
いただけます	-10.3191
のことを	-10.3193
少	-10.3195
わかって	-10.3196
著者	-10.3205
を出して	-10.3207
医学	-10.3212
るのが	-10.3217
沢山	-10.3222
キャンプ	-10.3223
臭い	-10.3224
トラック	-10.3225
若干	-10.3228
あとは	-10.3235
年金	-10.3236
左右	-10.3237
と言えば	-10.3238
減少	-10.3239
グラ	-10.3245
天皇	-10.3247
気がする	-10.3248
を楽しむ	-10.3249
見学	-10.325
主張	-10.3252
▁Re	-10.3252
いつか	-10.3257
と言われる	-10.3258
小学生	-10.3261
をご	-10.3263
ギフト	-10.3264
遅れ	-10.3266
ところです	-10.3268
歩く	-10.327
鈴木	-10.3273
ノン	-10.3275
博	-10.3275
▁まだ	-10.3279
>>	-10.328
賀	-10.3282
衣	-10.3284
時々	-10.3284
事業者	-10.3285
某	-10.3287
インストール	-10.329
サーバー	-10.3292
からだ	-10.3294
一時	-10.3295
▁だから	-10.3296
単位	-10.3297
を利用する	-10.3299
と思っていた	-10.3303
場所に	-10.3303
理由は	-10.3304
問い合わせ	-10.3307
コミュニティ	-10.3308
▁今回	-10.332
わずか	-10.3326
ここは	-10.3333
候補	-10.3334
勝負	-10.3334
聞く	-10.3338
プロフィール	-10.3338
フォ	-10.3341
散歩	-10.3343
弟	-10.3348
クス	-10.335
レー	-10.3353
子供の	-10.3356
ネットで	-10.3357
珍しい	-10.3359
ッツ	-10.3361
保管	-10.3361
ときには	-10.3364
ですけど	-10.3372
劇場	-10.3372
サイン	-10.3373
姉	-10.338
中止	-10.3381
財政	-10.3385
通知	-10.3395
であっても	-10.3395
機構	-10.3396
を知る	-10.3397
ハー	-10.3399
できなかった	-10.3399
認証	-10.3401
当該	-10.3413
信用	-10.3413
▁昨日	-10.3415
▁あの	-10.3415
そうした	-10.3417
甘い	-10.3418
判	-10.3421
かり	-10.3423
できること	-10.3424
ブラウザ	-10.3425
ップ	-10.3426
語り	-10.3429
エイ	-10.3431
にしても	-10.3431
エス	-10.3434
中心	-10.344
音声	-10.344
尚	-10.3441
歴	-10.3443
▁in	-10.3448
するもの	-10.3449
しようと	-10.3449
思考	-10.3452
刀	-10.3456
マシン	-10.3457
綺麗	-10.3458
物を	-10.3461
活躍	-10.3462
都合	-10.3466
抵抗	-10.3469
ではないか	-10.3472
端末	-10.348
宗教	-10.348
議会	-10.3481
大統領	-10.3484
アイドル	-10.3485
今年の	-10.3485
プレ	-10.3487
票	-10.3489
地元の	-10.3491
絶	-10.3491
のブログ	-10.3492
▁▲	-10.3494
出産	-10.3496
とし	-10.3498
お仕事	-10.3499
リズム	-10.35
us	-10.3507
自身の	-10.3511
チーズ	-10.3515
装備	-10.3521
いると	-10.3524
ポン	-10.3526
歯科	-10.3526
を行います	-10.353
汁	-10.3535
具体的な	-10.3538
裕	-10.354
ad	-10.354
自由に	-10.3541
ラブ	-10.3543
になること	-10.3546
たとえば	-10.3546
赤い	-10.3547
株式	-10.3547
ボン	-10.3549
実家	-10.355
上記	-10.355
たっぷり	-10.3551
つけて	-10.3555
通常の	-10.3556
棚	-10.3556
本当	-10.3557
投げ	-10.3559
ナン	-10.3563
上がる	-10.3577
どうも	-10.3579
美術	-10.3581
平日	-10.3584
じゃん	-10.3585
の森	-10.3587
徐々に	-10.359
筆	-10.3591
彼女の	-10.3592
興	-10.3597
ってる	-10.3605
残念ながら	-10.3608
ro	-10.3608
るような	-10.361
紅葉	-10.361
どこに	-10.3611
一般的な	-10.3615
ってこと	-10.3617
書籍	-10.3618
証明	-10.3619
商品の	-10.3619
▁その後	-10.3623
方法は	-10.3625
一切	-10.3627
政権	-10.3627
取って	-10.3629
だね	-10.3634
事態	-10.3636
つもり	-10.3637
鶏	-10.3641
▁北海道	-10.3642
意外と	-10.3648
II	-10.365
チャン	-10.3654
向けの	-10.3655
次は	-10.3656
はじめて	-10.3657
を求める	-10.366
に入り	-10.3662
いかに	-10.3668
豊富な	-10.3669
面積	-10.367
食べた	-10.3671
あなたは	-10.3672
出た	-10.3674
摂取	-10.3675
▁こんにちは	-10.3675
厚	-10.3676
日まで	-10.3679
があると	-10.368
新しく	-10.3681
幕	-10.3685
ご意見	-10.3686
忙しい	-10.3686
データを	-10.3695
細かい	-10.3697
羅	-10.3697
弘	-10.37
ながらも	-10.37
休憩	-10.3701
SP	-10.3703
個人情報	-10.3705
塗り	-10.3706
りん	-10.3706
要望	-10.3709
日曜日	-10.3713
明るい	-10.3715
使い方	-10.3716
すっかり	-10.3722
頂いた	-10.3728
大学の	-10.373
プレー	-10.373
以内	-10.373
務	-10.3732
サブ	-10.3733
SNS	-10.3734
の下	-10.3734
は無い	-10.3735
アンケート	-10.3741
養	-10.3741
だそうです	-10.3743
▁そう	-10.3744
なくなって	-10.3747
網	-10.3747
待って	-10.375
ダブル	-10.375
バル	-10.3753
拠点	-10.3754
風邪	-10.3759
控え	-10.3759
しなければならない	-10.3759
la	-10.3764
糖	-10.3768
そんなこと	-10.3769
ニア	-10.3773
上手く	-10.3774
吹き	-10.3774
フロント	-10.378
心に	-10.378
創造	-10.3781
子供たち	-10.3783
ST	-10.3783
加入	-10.3784
にあります	-10.3785
is	-10.3786
きり	-10.3787
ならではの	-10.3791
義務	-10.3793
イギリス	-10.3793
たる	-10.3793
のひとつ	-10.3797
幅広い	-10.38
新作	-10.3802
ユー	-10.3802
自身	-10.3805
ウイルス	-10.3807
縦	-10.3808
間違い	-10.381
ER	-10.381
も良い	-10.3812
るか	-10.3813
という事	-10.3817
シェア	-10.3819
押	-10.3819
寄	-10.3821
覚え	-10.3822
mo	-10.3822
評	-10.3823
車を	-10.3824
MO	-10.3825
の家	-10.3826
解除	-10.3826
からね	-10.3827
日本では	-10.3828
祝	-10.3829
クル	-10.383
のでしょう	-10.3832
がたくさん	-10.3836
のではなく	-10.3838
それまで	-10.384
昔の	-10.3842
鹿	-10.3845
国道	-10.3848
発信	-10.3849
荷物	-10.3849
階段	-10.385
収穫	-10.3852
FC	-10.3855
パフォーマンス	-10.3855
少なくとも	-10.3856
行事	-10.3857
峠	-10.3857
ヘッド	-10.3857
指示	-10.3861
促進	-10.3863
境	-10.3865
教会	-10.3866
奇	-10.3877
願い	-10.3878
大好き	-10.3881
教師	-10.3882
借り	-10.3883
アイデア	-10.3887
自治体	-10.3887
可能です	-10.3889
カードローン	-10.3889
ああ	-10.3891
レッド	-10.3894
取り付け	-10.3894
財	-10.3895
最後まで	-10.3898
▁まずは	-10.39
コラム	-10.3905
基本的に	-10.3908
投	-10.3908
されない	-10.3913
楽しんで	-10.3919
んじゃないか	-10.392
ロング	-10.3921
生まれた	-10.3921
アパート	-10.3922
自分を	-10.3928
たまに	-10.393
写真は	-10.3931
はい	-10.3934
玄関	-10.3936
ユニット	-10.3937
胃	-10.3946
ケーブル	-10.3947
寄せ	-10.3949
▁やっぱり	-10.3953
気温	-10.3955
おいて	-10.3956
コミ	-10.3959
NO	-10.3959
と考えています	-10.396
滞在	-10.3961
適	-10.3964
決済	-10.3964
族	-10.3965
ナイト	-10.3966
に加え	-10.3969
はほとんど	-10.3971
出身	-10.3974
優れた	-10.3975
走る	-10.3977
最後	-10.3978
至	-10.398
の皆さん	-10.3987
変わって	-10.3989
そろそろ	-10.3991
開業	-10.3991
しろ	-10.3992
中学	-10.3993
プリント	-10.3997
せない	-10.3997
at	-10.3997
札	-10.4001
も多い	-10.4001
ハード	-10.4001
塚	-10.4008
あんまり	-10.401
畳	-10.4013
メモ	-10.4015
過去の	-10.4017
ロボット	-10.4018
旦那	-10.4019
いよいよ	-10.402
支え	-10.4021
やめ	-10.4021
は非常に	-10.4023
高さ	-10.4025
なもの	-10.4025
スケジュール	-10.4026
をつけて	-10.4026
ったら	-10.4028
程度の	-10.4029
急に	-10.403
動く	-10.403
パッケージ	-10.4032
おく	-10.4039
ウェブ	-10.4041
もらって	-10.4043
集中	-10.4045
ッシュ	-10.4045
リアル	-10.4053
喜んで	-10.4056
解消	-10.4061
狂	-10.4064
かと思います	-10.4065
いたり	-10.4069
見られる	-10.4069
続いて	-10.4074
カイ	-10.4075
よー	-10.4076
に応じて	-10.4076
上位	-10.4077
高額	-10.4078
続	-10.4081
▁なんか	-10.4083
新潟	-10.4084
アカウント	-10.4087
不思議な	-10.4089
小さく	-10.4092
適切な	-10.4093
朝食	-10.4097
張	-10.4099
若者	-10.4099
アプリケーション	-10.4099
したいと思います	-10.41
▁それ	-10.41
ワー	-10.4101
タウン	-10.4101
活	-10.4103
給料	-10.4108
まさか	-10.4109
▁とりあえず	-10.4111
給与	-10.4112
支持	-10.4117
希	-10.4117
一本	-10.4122
の動き	-10.4126
ボー	-10.4126
—	-10.413
...。	-10.4133
店の	-10.4135
アメリカの	-10.4137
はじめ	-10.4144
撃	-10.4146
想い	-10.4147
つける	-10.4152
誕生	-10.4154
フレーム	-10.4154
管理人	-10.4157
てん	-10.4158
伸び	-10.4159
▁何	-10.4162
タグ	-10.4163
はもう	-10.4168
本日	-10.4168
酵素	-10.4173
子どもたち	-10.4173
略	-10.4173
あっ	-10.4175
だい	-10.4176
おか	-10.4179
シア	-10.4179
夏休み	-10.4184
忠	-10.4184
はその	-10.4191
もう一度	-10.4192
帳	-10.4193
今度	-10.4193
スマートフォン	-10.4199
はっきり	-10.4199
ボランティア	-10.4201
造り	-10.4204
本当の	-10.4207
年収	-10.4208
生物	-10.4212
育	-10.4212
配慮	-10.4213
今週	-10.4214
なんとなく	-10.422
を選択	-10.4223
消費者金融	-10.4223
リゾート	-10.4225
全国の	-10.4226
クリーニング	-10.4227
好み	-10.4227
今後も	-10.4227
亀	-10.4228
彼女は	-10.4229
確保	-10.4229
原作	-10.4233
入る	-10.4233
洗	-10.4235
の色	-10.4235
なるべく	-10.4236
始める	-10.4239
決	-10.4239
インテリア	-10.4239
▁実は	-10.4239
薄毛	-10.4243
気味	-10.4248
電力	-10.4248
占い	-10.4249
▁もし	-10.4257
最近の	-10.4258
・・・・・	-10.426
奈良	-10.4267
否定	-10.4268
きれい	-10.4268
旨	-10.4268
峰	-10.427
えて	-10.4272
▁Q	-10.4275
の前に	-10.4275
ことはない	-10.4276
このまま	-10.4278
しなかった	-10.428
▁私	-10.4281
才	-10.4283
決め	-10.4286
クーポン	-10.4286
ピンク	-10.4287
US	-10.4287
なさい	-10.4291
のほか	-10.4296
鶴	-10.4298
トーク	-10.4303
一年	-10.4303
うちの	-10.4305
変わらない	-10.4306
あら	-10.4306
の様子	-10.431
事に	-10.431
脂肪	-10.4312
イー	-10.4312
たちは	-10.4313
アレ	-10.4313
ベルト	-10.4315
力が	-10.4315
AT	-10.4317
合併	-10.4318
▁–	-10.4323
少々	-10.4333
築	-10.4334
数値	-10.4338
ついた	-10.4338
セイ	-10.4339
中村	-10.4344
シティ	-10.4346
首相	-10.435
を買う	-10.4353
タクシー	-10.4354
飲んで	-10.4359
取る	-10.436
吸収	-10.4361
次回	-10.4363
統合	-10.4365
泣き	-10.4367
噂	-10.4368
チャレンジ	-10.4368
なかったので	-10.4369
規定	-10.4369
ますよ	-10.4377
まつり	-10.4378
銀座	-10.4379
獲得	-10.4379
浅	-10.438
本部	-10.4381
補助	-10.4383
誰でも	-10.4384
効果が	-10.4385
充実	-10.4385
われ	-10.4385
放置	-10.4387
が好き	-10.4388
膝	-10.4389
一回	-10.439
イオン	-10.4393
ないこと	-10.4395
デン	-10.4396
の存在	-10.4396
巣	-10.4397
社の	-10.4398
だけは	-10.4398
確率	-10.44
の言葉	-10.4404
中には	-10.4411
が大きく	-10.4413
帰る	-10.4415
ファー	-10.4419
引用	-10.442
記述	-10.4421
IP	-10.4422
馬鹿	-10.4422
▁V	-10.4423
の高さ	-10.4425
なんでも	-10.4427
ニーズ	-10.4428
◎	-10.4431
具合	-10.4433
職人	-10.4434
っちゃ	-10.4436
(^^)	-10.4436
配布	-10.4437
を持った	-10.444
益	-10.4441
商品を	-10.4442
起こ	-10.4442
言えば	-10.4445
等を	-10.4446
翻訳	-10.4447
ドレス	-10.445
チョ	-10.445
社内	-10.4452
有り	-10.4456
as	-10.4457
最低	-10.4457
弱い	-10.4458
上がって	-10.446
ことができました	-10.4465
慶	-10.4467
入手	-10.4467
神様	-10.4469
背中	-10.4471
兵庫県	-10.4472
体力	-10.4473
かつて	-10.4474
to	-10.4479
ステ	-10.448
仙台	-10.4482
引っ越し	-10.4482
っち	-10.4483
オーナー	-10.4483
っけ	-10.4485
にした	-10.4485
当店	-10.4486
亜	-10.4486
移転	-10.4491
だという	-10.4496
競争	-10.4497
栗	-10.4498
いち	-10.45
連載	-10.4503
驚き	-10.4503
最初	-10.4503
エントリー	-10.4506
選択肢	-10.4508
といいます	-10.4509
ナイ	-10.451
収	-10.4511
手紙	-10.4512
旅館	-10.4515
新幹線	-10.4515
WEB	-10.4515
前回	-10.4516
一瞬	-10.4517
紫	-10.452
ィ	-10.4521
なのは	-10.4521
に入れて	-10.4526
サラダ	-10.453
組合	-10.4536
に比べて	-10.4538
いける	-10.4538
議	-10.4539
年には	-10.454
これまでの	-10.4545
マイナス	-10.4547
延長	-10.4548
出てくる	-10.4549
ぷ	-10.4552
管理者	-10.4554
トマト	-10.4554
Windows	-10.4556
艦	-10.4557
の中には	-10.4564
アナ	-10.4565
劇	-10.4566
ゆる	-10.4569
ココ	-10.457
メンテナンス	-10.4571
通勤	-10.4573
今月	-10.4576
専門家	-10.4577
の大きさ	-10.4582
人には	-10.459
ないし	-10.4596
長崎	-10.4603
けっこう	-10.4604
土曜日	-10.4605
民間	-10.4606
選ぶ	-10.4606
まれ	-10.4612
検	-10.4619
ラスト	-10.4622
夜の	-10.4632
特典	-10.4637
形態	-10.4637
集合	-10.4639
芽	-10.4641
になっていた	-10.4645
人形	-10.4646
ドラ	-10.4647
きょう	-10.4647
を書く	-10.4648
走行	-10.4651
ありますが	-10.4655
時代に	-10.4656
改	-10.4657
していること	-10.466
漏れ	-10.4667
面倒	-10.4667
トレード	-10.4668
実に	-10.4668
知っている	-10.467
コンピュータ	-10.467
▁大阪	-10.4672
由	-10.4674
パネル	-10.4676
小型	-10.4676
もあって	-10.4679
センチ	-10.4682
文学	-10.4683
es	-10.4686
膜	-10.4688
掛	-10.4688
約束	-10.4688
雨漏り	-10.4688
名の	-10.469
グリ	-10.469
大臣	-10.469
有料	-10.4691
照	-10.4691
リス	-10.4692
が強い	-10.4693
言うと	-10.4693
新築	-10.4701
は全く	-10.4702
ソー	-10.4703
それら	-10.4705
のページ	-10.4706
明るく	-10.4706
どちら	-10.4711
子どもの	-10.4712
育成	-10.4716
しまって	-10.4717
▁なお	-10.4717
ショック	-10.4718
山田	-10.4719
するので	-10.472
ゴールド	-10.4721
ビン	-10.4722
を買って	-10.4723
廃止	-10.4725
坪	-10.4726
にもかかわらず	-10.4727
デイ	-10.473
確か	-10.4731
表記	-10.4731
を示す	-10.4731
してもらう	-10.4733
▁西	-10.4735
繰り返し	-10.4738
兄弟	-10.4738
の手	-10.4739
コロナ	-10.4739
頼	-10.4741
▁ここ	-10.4742
せて	-10.4742
イヤ	-10.4745
暑い	-10.4749
税金	-10.4751
初め	-10.4757
お得な	-10.476
▁[...]	-10.4764
帰	-10.4764
今日も	-10.4766
布団	-10.4769
それほど	-10.477
の魅力	-10.4771
地下	-10.4774
様の	-10.4775
そうですね	-10.4778
ウェイ	-10.4778
ことになります	-10.4779
合計	-10.4779
探	-10.4781
何故	-10.4782
ごはん	-10.4784
▁株式会社	-10.4789
ジャー	-10.4792
活動を	-10.4794
だけでは	-10.4797
限界	-10.4798
陸	-10.4799
宣言	-10.48
をチェック	-10.48
楽しめる	-10.4802
写真を	-10.4803
中間	-10.4803
用途	-10.4807
学ぶ	-10.4807
事前	-10.4807
爪	-10.4808
▁O	-10.4809
じゃなくて	-10.4812
カウンター	-10.4813
望	-10.4815
このように	-10.4817
気がします	-10.482
した後	-10.482
をよく	-10.4825
らせて	-10.4827
快	-10.4827
確定	-10.4831
んだから	-10.4832
薬局	-10.4832
くり	-10.4835
ティング	-10.4835
人事	-10.4837
年目	-10.4838
松本	-10.4838
沖	-10.4838
ええ	-10.484
ますので	-10.4841
日程	-10.4843
臨床	-10.4845
リサイクル	-10.4846
現金	-10.4848
ワールド	-10.4848
ということを	-10.485
言葉を	-10.4852
Google	-10.4853
さい	-10.4854
俺の	-10.4855
証拠	-10.4855
する場合	-10.4855
を実施	-10.4857
雷	-10.4858
ソロ	-10.4858
ふく	-10.486
ホルモン	-10.4862
はこの	-10.4865
帰って	-10.4867
ドライバー	-10.4868
措置	-10.4869
吹	-10.4871
であって	-10.4871
針	-10.4873
体調	-10.4873
無く	-10.4874
死亡	-10.4874
両親	-10.4876
込	-10.4877
意味で	-10.4878
収集	-10.488
ぺ	-10.4882
ペア	-10.4882
領	-10.4883
していると	-10.4886
国立	-10.4886
搭載	-10.4886
高橋	-10.4887
かなぁ	-10.4889
化粧品	-10.4894
元々	-10.4897
補	-10.4901
重い	-10.4902
スーツ	-10.4904
学科	-10.4904
のお店	-10.4907
お部屋	-10.491
エロ	-10.491
臨	-10.4911
成立	-10.4913
の研究	-10.4915
仙	-10.4915
を入れ	-10.4918
しつつ	-10.492
個人的には	-10.4922
隣	-10.4923
サウンド	-10.4923
家で	-10.4924
外国	-10.4925
態度	-10.4928
ますか	-10.4932
の説明	-10.4932
捕	-10.4935
衝撃	-10.4936
飛行機	-10.4936
方法を	-10.4936
もありますが	-10.494
信号	-10.494
合って	-10.494
去年	-10.4944
規則	-10.4946
狭い	-10.495
してほしい	-10.495
マンガ	-10.4951
不満	-10.4951
といい	-10.4952
害	-10.4956
結論	-10.4959
駒	-10.496
軒	-10.4962
るのか	-10.4965
入れて	-10.4967
にお	-10.4967
登山	-10.4969
を行って	-10.4969
▁to	-10.497
恋人	-10.4971
口座	-10.4972
眠	-10.4973
アドレス	-10.4978
なきゃ	-10.4979
グローバル	-10.4979
清水	-10.4979
開き	-10.4981
デート	-10.4981
▁写真	-10.4982
丘	-10.4983
▁東	-10.4987
▁三	-10.4988
宣伝	-10.4988
葬儀	-10.4989
アス	-10.4993
処	-10.5005
オール	-10.5005
だけが	-10.5006
どれだけ	-10.5006
無事	-10.5011
ロス	-10.5015
ta	-10.5016
をご紹介	-10.5017
EC	-10.5018
でない	-10.502
したところ	-10.5021
やってる	-10.5022
アプローチ	-10.5024
ことはありません	-10.5026
想定	-10.5027
一歩	-10.5028
呼吸	-10.5029
本来	-10.5029
闘	-10.5033
孫	-10.5035
破壊	-10.5037
明け	-10.5038
キャンセル	-10.5039
のご	-10.5041
歌詞	-10.5044
の旅	-10.5046
習慣	-10.5047
承認	-10.505
などと	-10.5051
かき	-10.5052
渋谷	-10.5054
と思ったら	-10.5058
欲	-10.506
時半	-10.5062
場所で	-10.5063
を取る	-10.5064
役割	-10.5066
題	-10.5071
の姿	-10.5073
福島	-10.5074
多数	-10.5078
所得	-10.5079
ヒト	-10.5079
遠い	-10.508
豪	-10.508
整	-10.5081
特別な	-10.5084
いけ	-10.5088
中学生	-10.5088
たて	-10.5088
厳	-10.5089
アレンジ	-10.5089
山口	-10.5091
見せ	-10.5093
ごく	-10.5093
常識	-10.5096
te	-10.5096
秋の	-10.5097
の作品	-10.5099
返し	-10.51
我が家	-10.51
先生が	-10.5102
チャー	-10.5104
フォト	-10.5104
を開催	-10.5111
送り	-10.5111
宇	-10.5112
決まり	-10.5117
復帰	-10.5117
解釈	-10.5117
エキス	-10.5118
ログ	-10.5119
ようになる	-10.512
わかりません	-10.5122
体を	-10.5124
独	-10.5126
チョコ	-10.5128
側に	-10.5128
棒	-10.513
してみました	-10.5135
思います	-10.5146
UP	-10.5148
個性	-10.515
の為	-10.515
探偵	-10.5156
にいる	-10.5158
をしていた	-10.5159
』『	-10.516
まし	-10.516
使った	-10.5161
飛	-10.5163
ことが多い	-10.5166
となると	-10.5167
ate	-10.5168
不可	-10.5169
ドリンク	-10.5172
書店	-10.5173
毒	-10.5174
生きて	-10.5175
一郎	-10.5177
軽い	-10.5177
あたし	-10.5177
段階で	-10.5179
走って	-10.518
免許	-10.518
こちらも	-10.5181
得意	-10.5184
も同じ	-10.5184
水分	-10.5188
パンツ	-10.5189
助け	-10.5189
田舎	-10.519
かれ	-10.519
僕が	-10.5194
を行っている	-10.5194
水道	-10.5195
ことだ	-10.5195
コト	-10.5195
の時	-10.5198
飲む	-10.5199
アイス	-10.52
講義	-10.5201
デザイナー	-10.5201
今でも	-10.5202
アクション	-10.5202
。[	-10.5202
彼氏	-10.5204
当初	-10.521
na	-10.5213
中です	-10.5214
できました	-10.5215
子は	-10.5215
形状	-10.5216
AM	-10.5217
上司	-10.5218
申込	-10.5218
射	-10.5221
たので	-10.5222
どうやら	-10.5224
保育	-10.5225
詳細は	-10.5225
等で	-10.5226
カリ	-10.5227
メールで	-10.5227
デー	-10.523
今年も	-10.5234
終わって	-10.5235
することを	-10.5238
彼ら	-10.5241
マニュアル	-10.5241
ri	-10.5243
▁▼	-10.5247
RO	-10.5247
の木	-10.5249
墓	-10.525
詳しくは	-10.5252
武器	-10.5255
ゲン	-10.5256
の中の	-10.5256
従来の	-10.526
統一	-10.526
一杯	-10.5264
激安	-10.5264
営	-10.5265
夕食	-10.5265
内容は	-10.5268
先ほど	-10.5268
分かって	-10.527
年前	-10.527
俳優	-10.5271
みよう	-10.5271
長年	-10.5272
にあたって	-10.5276
春の	-10.5276
メント	-10.5278
為に	-10.5278
を使用して	-10.528
父親	-10.528
棟	-10.5282
動か	-10.5283
かかった	-10.5287
なくなり	-10.529
さすが	-10.529
おすすめの	-10.5293
やっている	-10.5297
容量	-10.5298
コール	-10.5301
醤油	-10.5302
昔から	-10.5303
肝	-10.5304
いだ	-10.5309
もあるので	-10.5311
▁例えば	-10.5312
の関係	-10.5313
と言い	-10.5313
マリ	-10.5318
いいのか	-10.5319
クラウド	-10.532
応用	-10.5323
▁朝	-10.5323
露	-10.5323
今では	-10.5325
ところは	-10.5326
ワイ	-10.5331
ほんと	-10.5341
極めて	-10.5343
特定の	-10.5344
わたし	-10.5347
スク	-10.535
サンプル	-10.5351
ちょっとした	-10.5351
収益	-10.5351
どっち	-10.5352
味噌	-10.5352
お気軽に	-10.5353
次第	-10.5353
においても	-10.5355
▁a	-10.5355
会社に	-10.5358
の一	-10.5359
売上	-10.536
須	-10.5362
嘘	-10.5367
の場	-10.5368
則	-10.5369
宮崎	-10.5375
一部の	-10.5377
先頭	-10.5378
報酬	-10.5378
エア	-10.5379
人もいる	-10.5384
しき	-10.5385
LINE	-10.5386
用に	-10.5387
TA	-10.5391
舌	-10.5398
??	-10.5399
▁名前	-10.5399
風に	-10.5399
みな	-10.54
概要	-10.5401
もらい	-10.5402
と言われています	-10.5404
タッチ	-10.5406
TOP	-10.5407
支給	-10.5407
その結果	-10.5407
残念	-10.5407
を考えて	-10.541
MS	-10.541
してくれます	-10.5411
くれて	-10.5412
わざわざ	-10.5419
って感じ	-10.542
敗	-10.5421
メル	-10.5421
時間に	-10.5422
相変わらず	-10.543
子供が	-10.5432
餅	-10.5432
構築	-10.5433
ウェア	-10.5435
財産	-10.5436
茂	-10.5437
年末	-10.5438
導	-10.544
障害者	-10.5443
パイ	-10.5443
ジャケット	-10.5446
no	-10.5449
NA	-10.5453
なるほど	-10.5453
ばら	-10.5455
前半	-10.5456
こういった	-10.5457
そのうち	-10.5457
プレイヤー	-10.5461
レジ	-10.5463
教えてください	-10.5465
▁◎	-10.5466
仕事が	-10.5467
をかけて	-10.5467
不明	-10.5468
▁私が	-10.5474
セール	-10.5474
たのは	-10.5476
変換	-10.5479
ご相談	-10.548
マーケット	-10.5481
を入れる	-10.5487
帰宅	-10.5487
ポリ	-10.5487
晴	-10.549
高原	-10.5491
窓口	-10.5494
体に	-10.5494
来年	-10.5494
ちょ	-10.5496
個別	-10.5496
海岸	-10.5499
府	-10.55
中古車	-10.5502
ポケット	-10.5502
エンジニア	-10.5502
看護	-10.5502
il	-10.5504
たびに	-10.5504
有機	-10.5505
丈	-10.5508
果	-10.5512
ノウハウ	-10.5513
晩	-10.5514
りました	-10.5519
俊	-10.5519
お土産	-10.5519
と考える	-10.552
っす	-10.5525
おしゃれ	-10.5531
手当	-10.5532
居酒屋	-10.5535
ヴァ	-10.5536
手順	-10.5536
するなど	-10.5539
激しい	-10.5539
am	-10.5543
子が	-10.5545
参	-10.5547
尻	-10.5547
の販売	-10.5556
消	-10.5556
危機	-10.5559
という点	-10.5562
みます	-10.5562
コンセプト	-10.5564
の事	-10.5566
一括	-10.5571
衛生	-10.5572
コレクション	-10.5572
統計	-10.5576
文庫	-10.5579
出品	-10.558
ステップ	-10.5581
が大きい	-10.5581
ひび割れ	-10.5582
支払い	-10.5585
違反	-10.5587
居る	-10.5589
他社	-10.5589
(*	-10.5594
へん	-10.5595
刺	-10.5598
湾	-10.5598
彼が	-10.5599
普及	-10.56
を読んで	-10.56
みましょう	-10.5601
過ごす	-10.5602
遅い	-10.5605
かね	-10.5609
経営者	-10.561
デメリット	-10.5614
でもない	-10.5615
テル	-10.5616
ァ	-10.5616
ときの	-10.5617
痛い	-10.5619
楽しむ	-10.562
▁and	-10.5622
寿	-10.5623
抗	-10.5624
オート	-10.5628
可能性がある	-10.563
ネコ	-10.5632
尿	-10.5632
トラックバック	-10.5632
としている	-10.5633
を目指して	-10.5635
サプリ	-10.5636
カ月	-10.5637
このブログ	-10.5638
テープ	-10.564
スイッチ	-10.5641
スペシャル	-10.5643
こども	-10.5644
身に	-10.5646
デバイス	-10.5652
芸	-10.5653
▁·	-10.5653
ようですが	-10.5654
優しく	-10.5654
部長	-10.5656
\	-10.566
変動	-10.5664
けて	-10.5665
ラム	-10.5668
クルマ	-10.567
再度	-10.567
口に	-10.5673
周辺の	-10.5673
民主党	-10.5676
所に	-10.5678
洗い	-10.5683
Twitter	-10.5684
博士	-10.5687
変わった	-10.5689
下記の	-10.5689
こうして	-10.569
お腹	-10.5691
美しく	-10.5691
綿	-10.5692
んでいる	-10.5693
店内	-10.5696
・・・」	-10.5696
下に	-10.5697
借入	-10.57
アラ	-10.5702
私に	-10.5706
ができます	-10.571
寄り	-10.5712
おもちゃ	-10.5714
いずれも	-10.5715
さくら	-10.5715
▁on	-10.572
浮気	-10.5723
裁判	-10.5724
狙い	-10.5727
チュ	-10.5728
ia	-10.5734
くれました	-10.5736
かく	-10.5736
だとか	-10.5737
〇	-10.5738
EX	-10.5743
ポート	-10.5743
突き	-10.5743
ディー	-10.5744
ロール	-10.575
雅	-10.5753
いくつかの	-10.5754
していますが	-10.5755
トップへ	-10.5756
労働者	-10.5757
任せ	-10.5759
人々	-10.5759
副作用	-10.576
どうやって	-10.576
バッテリー	-10.5769
合成	-10.5772
方には	-10.5772
まわり	-10.5773
のお知らせ	-10.5774
の新	-10.5779
差し	-10.578
締め	-10.578
できず	-10.5781
ますます	-10.5784
を行っています	-10.5784
↓	-10.5786
女優	-10.5794
日本に	-10.5797
ジャン	-10.5798
用語	-10.5801
毎週	-10.5802
主な	-10.5805
の効果	-10.5806
▁トップページ	-10.581
視点	-10.5812
プル	-10.5813
登り	-10.5815
定番	-10.5816
実力	-10.5816
が出来る	-10.5817
良かったです	-10.5819
問題は	-10.5819
気持ちが	-10.582
酢	-10.582
どうか	-10.5821
お試し	-10.5824
景	-10.5827
トゥ	-10.5827
熊本	-10.5827
られています	-10.5829
日付	-10.583
の設定	-10.5833
時まで	-10.5837
ly	-10.5837
li	-10.5837
創業	-10.5837
人達	-10.5839
伊藤	-10.584
上記の	-10.5843
ぼく	-10.5844
可能性があります	-10.5847
手の	-10.5848
いただいて	-10.5851
メールアドレス	-10.5853
か月	-10.5853
鳴	-10.5855
モニター	-10.5856
本文	-10.5859
基地	-10.586
応	-10.586
どれ	-10.586
今から	-10.5861
ウェブサイト	-10.5866
という話	-10.5867
閉	-10.5867
近くに	-10.5868
やん	-10.5869
駆け	-10.5873
たいと思います	-10.5873
辺り	-10.5875
語る	-10.5875
植え	-10.5877
話す	-10.5878
lo	-10.5879
乃	-10.588
切って	-10.588
周年	-10.5888
受信	-10.5889
戦闘	-10.589
つぶ	-10.589
みてください	-10.5891
護	-10.5896
以外に	-10.59
大好きな	-10.5905
かみ	-10.5906
主要	-10.5907
ニューヨーク	-10.5909
単に	-10.591
お昼	-10.5912
競技	-10.5916
ビア	-10.5918
踏み	-10.5919
彼らは	-10.5919
特殊	-10.5921
だったが	-10.5922
オリンピック	-10.5922
パラ	-10.5924
数学	-10.5924
するような	-10.5925
好評	-10.5926
基本的な	-10.5927
私達	-10.5929
(^	-10.593
時間の	-10.5931
ケイ	-10.5933
のほう	-10.5939
ご案内	-10.5941
別れ	-10.5942
私には	-10.5943
過ぎて	-10.5945
したので	-10.5946
市立	-10.5946
なのでしょうか	-10.5947
を守る	-10.5948
快適	-10.5948
一枚	-10.5948
代の	-10.5949
のですか	-10.595
最初から	-10.595
マネジメント	-10.595
テレ	-10.5952
競馬	-10.5952
扉	-10.5954
インチ	-10.5956
兼	-10.596
ent	-10.596
の多い	-10.5961
おかしい	-10.5961
するように	-10.5962
がついて	-10.5963
吉田	-10.5963
分割	-10.5965
悪く	-10.5967
デス	-10.597
が少なく	-10.5972
age	-10.5973
滅	-10.5973
よろしく	-10.5974
さんから	-10.5975
使用する	-10.5977
犯罪	-10.5978
エアコン	-10.5978
ボリューム	-10.5979
は本当に	-10.598
眺め	-10.5985
東海	-10.5988
行きたい	-10.599
飾り	-10.599
香港	-10.5993
られました	-10.5993
マッチ	-10.5997
マルチ	-10.6001
長野県	-10.6004
涼	-10.6006
然	-10.6007
サークル	-10.6007
次元	-10.6008
かえ	-10.6008
付いて	-10.6014
の際に	-10.6018
看板	-10.6022
秘密	-10.6022
研	-10.6024
ないか	-10.6025
公式サイト	-10.6025
本当は	-10.6028
の良さ	-10.6029
植	-10.6029
と言っても	-10.6031
モー	-10.6032
まとめて	-10.6032
いいですね	-10.6036
じゃないか	-10.6038
漢字	-10.604
ものに	-10.604
♡	-10.6041
中国の	-10.6042
定義	-10.6042
オーダー	-10.6043
漬け	-10.6043
社会人	-10.6045
を変える	-10.6048
ポジション	-10.605
立つ	-10.6053
しておく	-10.6055
薄い	-10.6055
の準備	-10.6055
充電	-10.6056
来ました	-10.6057
世間	-10.606
したがって	-10.606
に変更	-10.6064
人工	-10.6064
チャンネル	-10.6067
んだよね	-10.6068
ればいい	-10.607
PDF	-10.607
予定です	-10.6071
委託	-10.6074
暖	-10.6075
わかります	-10.6076
女性が	-10.6077
正しく	-10.6081
ラク	-10.6085
公表	-10.6088
小林	-10.6089
んな	-10.6089
負	-10.6089
思いを	-10.6091
寿司	-10.6092
わり	-10.6093
なりました	-10.6094
覚えて	-10.6095
タオル	-10.6099
ハンド	-10.6103
そうですが	-10.6104
se	-10.6104
じゃあ	-10.6106
嬉しいです	-10.6106
のイメージ	-10.6107
撮り	-10.6108
先行	-10.6109
RA	-10.611
広報	-10.611
オーストラリア	-10.6111
シンプル	-10.6111
うる	-10.6112
深夜	-10.6115
につきましては	-10.6116
報告書	-10.6118
うまい	-10.6121
レット	-10.6124
が良く	-10.6125
親子	-10.6127
わら	-10.6127
ローズ	-10.6128
▁ただし	-10.6128
ゆき	-10.613
MI	-10.6132
を探して	-10.6132
綺麗な	-10.6132
山本	-10.6132
殆ど	-10.6137
シミ	-10.6137
が必要な	-10.6138
は約	-10.6141
ってしまう	-10.6143
寝る	-10.6144
EN	-10.6146
今すぐ	-10.6148
すみません	-10.615
今も	-10.615
を用いて	-10.6151
うれしい	-10.6152
混	-10.6153
伝え	-10.6156
々と	-10.6157
の数	-10.6157
AN	-10.6159
変な	-10.6159
だけです	-10.6163
センス	-10.6164
の活動	-10.6165
クレ	-10.6168
朝から	-10.6169
主体	-10.6169
の口コミ	-10.6169
にあり	-10.6173
観測	-10.6177
ないけど	-10.618
漢	-10.6181
どちらも	-10.6182
起動	-10.6185
ボク	-10.6185
クチコミ	-10.6194
特許	-10.6194
恐れ	-10.6195
刻	-10.6195
LE	-10.6197
を選んで	-10.6197
お気に入り	-10.6197
匂い	-10.6197
ジャンプ	-10.6198
冷え	-10.62
おう	-10.6201
熱い	-10.6202
を迎え	-10.6203
雑貨	-10.6206
パル	-10.621
▁自分の	-10.6211
歓迎	-10.6214
トレ	-10.6218
二つ	-10.6218
GB	-10.6221
しますが	-10.6221
銃	-10.6222
を確認	-10.6225
手前	-10.6225
金融機関	-10.6225
▁日本の	-10.6229
の生活	-10.6234
の後	-10.6235
主婦	-10.6236
分解	-10.6239
au	-10.624
出来ます	-10.624
ができ	-10.6242
の間で	-10.6242
出荷	-10.6244
数が	-10.6245
無視	-10.6247
AC	-10.6248
いずれ	-10.6249
その時	-10.6249
聴	-10.625
▁ホーム	-10.6253
してくる	-10.6253
が多かった	-10.6254
卒	-10.6256
やりたい	-10.626
お得	-10.626
達成	-10.6262
る事	-10.6263
ストア	-10.6263
カタログ	-10.6264
水を	-10.6265
を作り	-10.6266
パスワード	-10.6267
ことでしょう	-10.6267
短期	-10.6268
原則	-10.627
の力	-10.6271
防災	-10.6272
古代	-10.6273
がいっぱい	-10.6274
苗	-10.6275
ファミリー	-10.6275
▁↑	-10.6276
の基本	-10.6278
組み合わせ	-10.6279
大和	-10.628
フロー	-10.6287
ショート	-10.6289
の向上	-10.629
と言った	-10.629
なさ	-10.629
アルコール	-10.6291
反映	-10.6291
止	-10.6293
をご覧ください	-10.6293
SS	-10.6293
続け	-10.6295
嫌い	-10.6296
もありません	-10.6296
教員	-10.6296
最近では	-10.63
似	-10.6301
ゴム	-10.6302
の使用	-10.6303
睡眠	-10.6304
自分も	-10.6307
者に	-10.6307
に乗り	-10.6309
連れ	-10.631
本の	-10.6311
売って	-10.6313
が出た	-10.6315
方を	-10.6317
伸	-10.6317
欧州	-10.6317
直し	-10.6318
空き家	-10.6321
かす	-10.6322
ED	-10.6322
一生	-10.6324
ブーム	-10.6328
ハワイ	-10.6329
をしています	-10.6331
データベース	-10.6337
に登録	-10.6342
素人	-10.6347
ついでに	-10.6347
はなく	-10.6348
いざ	-10.6352
Mac	-10.6353
黒い	-10.6353
分類	-10.6356
世界に	-10.6357
ちゃんが	-10.6358
が欲しい	-10.636
大きさ	-10.637
様な	-10.6371
貸	-10.6371
大事な	-10.6372
覚	-10.6375
絵本	-10.6377
尊	-10.6379
つながり	-10.6381
攻め	-10.6385
小屋	-10.6386
所で	-10.6387
菊	-10.6388
が可能です	-10.639
とおり	-10.6393
——	-10.6394
日時	-10.6394
水準	-10.6395
の状況	-10.6396
IS	-10.6397
従来	-10.6397
マウス	-10.6399
ww	-10.6401
目で	-10.6403
ふと	-10.6403
泡	-10.6403
かない	-10.6403
発想	-10.6404
をご紹介します	-10.6404
衣装	-10.6406
さっき	-10.6407
思想	-10.6408
終わった	-10.6408
基盤	-10.6415
持っている	-10.6415
除	-10.6417
させていただきました	-10.6419
備え	-10.642
だいたい	-10.6427
▁一	-10.6429
両方	-10.6434
▁前	-10.6435
なにか	-10.6438
藩	-10.6438
拡張	-10.6439
インター	-10.644
視聴	-10.6441
やり方	-10.6444
¥	-10.6447
後悔	-10.645
と思われます	-10.645
コツ	-10.6453
同時	-10.6454
世帯	-10.6458
になってしまった	-10.6458
知りたい	-10.646
誕生日	-10.6465
イカ	-10.6468
カジノ	-10.6469
ガーデン	-10.647
しょ	-10.6471
アレルギー	-10.6472
プレミアム	-10.6476
作者	-10.6477
使	-10.648
勇気	-10.648
ご予約	-10.648
役員	-10.6483
来週	-10.6483
の差	-10.6484
あくまで	-10.6487
バレ	-10.6489
フィールド	-10.6493
事で	-10.6494
ation	-10.6494
半年	-10.6495
いきたい	-10.6497
充分	-10.6497
自分自身	-10.6498
こんにちは	-10.6499
輝	-10.65
ビュー	-10.6501
勢い	-10.6502
ようになり	-10.6502
こちらは	-10.6503
誰もが	-10.6506
工程	-10.6509
びっくり	-10.651
を食べ	-10.651
リード	-10.6515
心が	-10.6516
のホームページ	-10.652
まちづくり	-10.652
をし	-10.6521
お話し	-10.6523
働いて	-10.6527
を高める	-10.6529
部分は	-10.6531
ハート	-10.6532
が増え	-10.6532
ml	-10.6533
戦い	-10.6537
冠	-10.6539
青年	-10.6539
たとえ	-10.654
施行	-10.6541
ワード	-10.6542
シェ	-10.6543
コイン	-10.6543
通貨	-10.6548
襲	-10.6548
税込	-10.6549
貝	-10.6549
お休み	-10.6551
えない	-10.6552
頂く	-10.6552
せば	-10.6555
夕	-10.6555
月号	-10.6557
皿	-10.6561
になりたい	-10.6561
織	-10.6562
市町村	-10.6562
革	-10.6564
すなわち	-10.6566
冬の	-10.6573
将	-10.6574
お伝え	-10.6574
▁う	-10.6578
風味	-10.6582
ビーチ	-10.6583
重量	-10.6583
プライベート	-10.6584
風の	-10.6585
岡山	-10.6587
科目	-10.6592
イイ	-10.6593
を引き	-10.6594
新品	-10.6596
相続	-10.6597
疑	-10.6598
保護者	-10.6603
緩	-10.6604
ハマ	-10.6608
円で	-10.6609
お祝い	-10.6612
こともあり	-10.6612
あなたに	-10.6614
お互い	-10.6615
ちゃった	-10.6615
てしまいます	-10.6616
声が	-10.6616
ませんが	-10.6616
AS	-10.6619
軽減	-10.6619
方がいい	-10.6621
静岡	-10.6621
ホット	-10.6621
文句	-10.6623
キャスト	-10.6624
らせ	-10.6624
フォー	-10.6625
フェア	-10.6626
ヴ	-10.6631
木の	-10.6636
なこと	-10.6639
あまりにも	-10.6639
闇	-10.6639
取り扱い	-10.6642
見たい	-10.6643
滑	-10.6645
知り合い	-10.6647
切り替え	-10.6648
四国	-10.6651
置いて	-10.6651
低下	-10.6652
わたしは	-10.6656
癒し	-10.6658
▁確かに	-10.6659
並	-10.6659
お子様	-10.666
デモ	-10.666
リラックス	-10.666
あき	-10.6665
ミリ	-10.6667
〔	-10.6667
前日	-10.6668
場所は	-10.6671
芝	-10.6672
’	-10.6672
せいか	-10.6674
十分に	-10.6674
誤	-10.6674
うつ	-10.6675
人類	-10.6675
康	-10.6675
引っ	-10.6676
店長	-10.6677
回目の	-10.6678
対処	-10.668
を高め	-10.6682
振興	-10.6683
寝て	-10.6683
現役	-10.6686
嫁	-10.6687
連休	-10.669
爆発	-10.669
時間帯	-10.669
もよく	-10.6692
振	-10.6693
感が	-10.6697
育児	-10.6697
濃い	-10.6699
ダメージ	-10.6701
に基づく	-10.6704
ビッグ	-10.6705
だいぶ	-10.6707
ませんか	-10.6709
を取って	-10.671
昼食	-10.6711
進出	-10.6711
みたら	-10.6711
に向けた	-10.6712
摂	-10.6712
見ると	-10.6716
返す	-10.6716
飽き	-10.6718
芋	-10.6718
理想	-10.6721
メイ	-10.6721
方法で	-10.6722
id	-10.6723
ES	-10.6724
ハム	-10.6724
一緒	-10.6726
▁投稿者	-10.6727
いること	-10.6728
節約	-10.6728
私自身	-10.6735
迷惑	-10.6736
暗	-10.6737
素敵	-10.6741
オリ	-10.6742
孝	-10.6745
決算	-10.6746
真実	-10.6748
監視	-10.675
困る	-10.675
のなら	-10.6752
ho	-10.6753
大分	-10.6755
部分が	-10.6755
ソリューション	-10.6755
大人の	-10.6755
Android	-10.6756
くなった	-10.6756
チップ	-10.6756
サラ	-10.6759
グラス	-10.6761
お金を借りる	-10.6761
我々	-10.6762
係	-10.6762
ヤマ	-10.6765
を用いた	-10.6767
山頂	-10.6768
なんだけど	-10.6768
癖	-10.6769
同一	-10.6769
仕上がり	-10.6772
トル	-10.6775
調べて	-10.6778
過去に	-10.6779
になったら	-10.678
お客さま	-10.6783
マジ	-10.679
限	-10.679
熟	-10.679
だんだん	-10.6791
の時間	-10.6794
体が	-10.6796
どれも	-10.6797
情報が	-10.6798
ることができる	-10.6799
を書いて	-10.68
上げる	-10.6801
が好きな	-10.6801
スマート	-10.6803
仮	-10.6803
カロリー	-10.681
入会	-10.6812
彼らの	-10.6813
バリ	-10.6815
てきました	-10.6817
入社	-10.682
即日	-10.6832
の部分	-10.6832
楽曲	-10.6834
訴え	-10.6835
ぼう	-10.6837
浮	-10.6837
。●	-10.6838
録	-10.6839
の皆様	-10.684
受講	-10.6841
ha	-10.6841
に来た	-10.6844
特性	-10.6845
サーバ	-10.6846
ビックリ	-10.6846
をしっかり	-10.6846
ニキビ	-10.6847
単語	-10.6848
落ちる	-10.6848
敷	-10.6848
割れ	-10.6848
算	-10.685
許	-10.6851
おこ	-10.6852
を利用した	-10.6852
できるので	-10.6855
トレンド	-10.6859
PA	-10.686
具体的に	-10.6862
フォロー	-10.6862
オス	-10.6864
フィルム	-10.6865
電池	-10.6867
改良	-10.687
捨て	-10.687
ter	-10.6871
商店街	-10.6872
録音	-10.6873
いらっしゃる	-10.6873
財布	-10.688
ot	-10.6883
をつける	-10.6883
があること	-10.6883
中でも	-10.6883
ほとんどの	-10.6884
覆	-10.6886
作戦	-10.6888
農家	-10.6889
戦後	-10.6892
削	-10.6893
談	-10.6894
の位置	-10.6894
買	-10.6894
リビング	-10.6895
工房	-10.6896
レア	-10.6903
学校の	-10.6904
化する	-10.6906
心臓	-10.6907
だれ	-10.6908
の価値	-10.6911
ないから	-10.6913
あるので	-10.6914
てしまい	-10.6914
既	-10.6922
引き続き	-10.6926
十分な	-10.6927
だめ	-10.6927
でしょうね	-10.6929
するのか	-10.6929
トヨタ	-10.6931
付く	-10.6932
アド	-10.6933
ことにより	-10.6938
を開始	-10.6938
かかって	-10.694
よくある	-10.694
過ぎる	-10.6942
ション	-10.6943
県内	-10.6943
記者	-10.6944
出来事	-10.6946
銘柄	-10.6946
一般的に	-10.6948
使っている	-10.695
▁ここで	-10.695
遺伝子	-10.6951
演技	-10.6952
流通	-10.6953
美味しく	-10.6953
オレンジ	-10.6953
を読み	-10.6957
蓮	-10.6957
▁みんな	-10.6958
ほうがいい	-10.6958
につながる	-10.6958
片付け	-10.6959
呼び	-10.6961
旗	-10.6962
に行ってきました	-10.6965
わけだ	-10.6966
終わる	-10.6966
流れる	-10.6968
≫	-10.6969
くなって	-10.6972
触れ	-10.6973
我慢	-10.6974
どころ	-10.6974
ホント	-10.6977
因	-10.6977
に基づいて	-10.6977
南部	-10.6977
いただきます	-10.6979
JA	-10.6984
受賞	-10.6985
DS	-10.6986
〕	-10.6986
払	-10.6987
謎	-10.6987
反省	-10.6987
してしまいました	-10.6987
ものと	-10.6989
ut	-10.6989
干	-10.699
他人	-10.699
シンプルな	-10.6991
誰が	-10.6993
仕掛け	-10.6994
線の	-10.6996
いたのですが	-10.6997
につき	-10.7
直す	-10.7
公共	-10.7
▁京都	-10.7002
スペイン	-10.7004
原料	-10.7005
中小企業	-10.7006
観光客	-10.7006
英国	-10.7006
お金が	-10.7006
クライアント	-10.7007
阪神	-10.7008
銅	-10.701
けどね	-10.701
湿	-10.7012
合わせて	-10.7014
固	-10.7014
話は	-10.7015
ヒント	-10.702
スカ	-10.702
に挑戦	-10.7023
先生に	-10.7025
。■	-10.7027
マラソン	-10.7029
荷	-10.7031
輸送	-10.7033
洗浄	-10.7033
全般	-10.7035
スイーツ	-10.7035
飾	-10.7038
季	-10.7039
に伴い	-10.7039
済	-10.7041
YouTube	-10.7041
心理	-10.7042
の使い方	-10.7053
ゴー	-10.7054
コム	-10.7054
ゆっくりと	-10.7055
都道府県	-10.7056
怒り	-10.7057
出席	-10.7057
証券	-10.7061
生活を	-10.7062
大変な	-10.7063
梨	-10.7069
ターン	-10.7069
読書	-10.7069
ランク	-10.707
気を	-10.7072
照明	-10.7073
▁ま	-10.7076
伝える	-10.7078
▁最近のコメント	-10.708
展望	-10.7082
民族	-10.7083
ことによって	-10.7084
転換	-10.7085
場合に	-10.7093
暇	-10.7094
キス	-10.7095
延	-10.7096
かず	-10.7098
組み	-10.71
遊んで	-10.7104
ート	-10.7106
浩	-10.7109
血液	-10.711
処方	-10.711
家電	-10.7116
色んな	-10.7121
づけ	-10.7121
地下鉄	-10.7124
汚	-10.7126
こない	-10.7126
だらけ	-10.7127
寺院	-10.7129
あれば	-10.7129
ブレ	-10.7131
さと	-10.7133
徹底	-10.7138
を求めて	-10.7141
午前中	-10.7147
ひどい	-10.7147
るもの	-10.7151
になれば	-10.7155
を提供	-10.7155
クール	-10.7158
ミルク	-10.716
うた	-10.7162
炭	-10.7163
優先	-10.7163
のんびり	-10.7163
の人気	-10.7164
キュ	-10.7165
偏	-10.7165
第三	-10.7166
ver	-10.7167
詐欺	-10.7167
関節	-10.7167
プチ	-10.7167
情報は	-10.7168
習	-10.7169
重視	-10.717
を取得	-10.7172
余り	-10.7172
森林	-10.7175
位の	-10.7178
出現	-10.7179
包	-10.718
を読む	-10.7181
○○	-10.7181
っぽ	-10.7181
入口	-10.7184
会う	-10.7184
エラー	-10.7185
輸出	-10.7186
ry	-10.7189
腸	-10.719
離れ	-10.7194
性質	-10.7194
大体	-10.7196
イル	-10.7196
上から	-10.7198
いただきたい	-10.7199
DA	-10.7207
ギャラリー	-10.7209
代行	-10.7209
仕方ない	-10.721
由来	-10.7211
飛んで	-10.7211
家を	-10.7212
研究会	-10.7215
かなりの	-10.7216
瓶	-10.7217
提携	-10.7218
黄色	-10.7218
の音	-10.7218
とくに	-10.722
ホン	-10.7222
を与え	-10.7223
を担当	-10.7224
を始め	-10.7227
落とし	-10.7228
という意味	-10.7229
の仕方	-10.7231
キット	-10.7231
サプリメント	-10.7232
知る	-10.7235
憲法	-10.7235
というような	-10.7237
ex	-10.7237
提示	-10.7238
国産	-10.7241
利用する	-10.7244
を聞いて	-10.7245
ムー	-10.7247
いかない	-10.7247
麦	-10.7247
無線	-10.725
クト	-10.725
たまたま	-10.725
ME	-10.725
まじ	-10.7252
を与える	-10.7254
um	-10.7254
OL	-10.7255
されていて	-10.7259
申	-10.7259
の中では	-10.7261
されていました	-10.7267
の時に	-10.7267
親切	-10.7269
覚悟	-10.7272
新人	-10.7274
MP	-10.7274
しかった	-10.7274
が非常に	-10.7275
加速	-10.7278
運命	-10.7279
労	-10.7281
やがて	-10.7282
洗濯	-10.7283
がかかる	-10.7283
劣化	-10.7283
いら	-10.7286
ご協力	-10.7287
トンネル	-10.7288
概念	-10.7289
積み	-10.7291
過程	-10.7291
お父さん	-10.7291
きれいな	-10.7294
違った	-10.7295
ーん	-10.7296
頂き	-10.7296
抽出	-10.7299
住み	-10.7301
⇒	-10.7302
利用できる	-10.7303
手が	-10.7303
世界で	-10.7305
価	-10.7307
同意	-10.7309
福岡県	-10.7309
を探し	-10.731
あえて	-10.731
髪の毛	-10.731
梅雨	-10.7312
編成	-10.7313
あげる	-10.7316
▁今まで	-10.7317
にかかる	-10.7318
迎え	-10.732
禁	-10.7321
酸化	-10.7323
の評価	-10.7327
踊り	-10.7327
の変更	-10.7328
部分を	-10.7335
見ている	-10.7336
考えた	-10.7337
かというと	-10.7338
ようになって	-10.7339
てしまいました	-10.7339
エピソード	-10.734
が続く	-10.7341
チェーン	-10.7341
店で	-10.7342
熊	-10.7342
フルーツ	-10.7344
冷蔵庫	-10.7345
電話番号	-10.7346
あて	-10.7346
ボーナス	-10.7348
投手	-10.7349
スパ	-10.735
コア	-10.7351
お問合せ	-10.7351
LO	-10.7352
加藤	-10.7354
除去	-10.7354
肌に	-10.7355
読んだ	-10.7357
硬	-10.7358
鹿児島	-10.7358
仕事の	-10.7358
付属	-10.7359
を大切に	-10.736
お礼	-10.7361
になれる	-10.7361
以外にも	-10.7362
便利です	-10.7364
USB	-10.7364
に関わる	-10.7366
号線	-10.7368
お花	-10.7373
属	-10.7376
荘	-10.7378
着用	-10.7378
缶	-10.738
お湯	-10.738
魔法	-10.7384
期限	-10.7384
ロゴ	-10.7386
ごめんなさい	-10.7386
清掃	-10.739
初回	-10.7392
▁白	-10.7393
恐怖	-10.7393
選手が	-10.7395
絞	-10.7395
大切に	-10.7396
▁これから	-10.7396
はこちらから	-10.7397
くら	-10.7399
一生懸命	-10.7399
周囲	-10.74
得点	-10.74
巡り	-10.7403
が出てくる	-10.7404
立地	-10.7404
バイオ	-10.7404
物の	-10.7406
上げて	-10.7406
AR	-10.7406
お友達	-10.7407
マナー	-10.7409
▁“	-10.7411
月末	-10.7411
こん	-10.7414
早めに	-10.7415
AL	-10.7419
を紹介します	-10.7424
フライ	-10.7425
そちら	-10.7425
亭	-10.7426
懐かしい	-10.7427
ご質問	-10.743
分子	-10.7431
▁s	-10.7431
違います	-10.7433
主演	-10.7433
製の	-10.7433
巡	-10.7434
LA	-10.7436
宅配	-10.7438
事務局	-10.7439
不正	-10.744
景気	-10.744
秋田	-10.7441
ことなく	-10.7443
▁北	-10.7444
それなりに	-10.7446
てください	-10.7447
別途	-10.745
ることで	-10.7451
クラシック	-10.7451
四季	-10.7451
入った	-10.7453
切った	-10.7453
をつくる	-10.7455
唯一の	-10.7456
お弁当	-10.7457
^^;	-10.7461
ヴェ	-10.7461
漁	-10.7463
くださいね	-10.7467
進んで	-10.7468
主催	-10.7469
もはや	-10.7469
ございます	-10.747
を見ながら	-10.7474
ごみ	-10.7477
凄く	-10.7477
ヨガ	-10.748
をつけ	-10.7482
育毛	-10.7482
ちゃんは	-10.7485
隠れ	-10.7486
を追加	-10.7487
江戸時代	-10.7488
テクノロジー	-10.7495
と言われ	-10.7495
先週	-10.7498
させて頂きます	-10.7498
の国	-10.7499
ラス	-10.7499
大切	-10.7502
大阪府	-10.7503
エー	-10.7505
オブ	-10.7506
品種	-10.751
債務整理	-10.7511
邦	-10.7512
きれいに	-10.7513
安全性	-10.7514
正解	-10.7515
色々と	-10.7519
借	-10.7519
君の	-10.7522
コーチ	-10.7527
日中	-10.7529
離れた	-10.7531
地に	-10.7534
るため	-10.7535
が来る	-10.7535
房	-10.7536
話が	-10.7538
リニューアル	-10.7541
タワー	-10.7541
の可能性	-10.7541
悪化	-10.7543
!!!	-10.7543
社会的	-10.7546
えた	-10.7548
レコード	-10.7551
が増えて	-10.7551
周りの	-10.7552
をしました	-10.7553
ネス	-10.7556
アクセサリー	-10.7557
高め	-10.7562
吾	-10.7564
に移	-10.7565
の通り	-10.7569
生成	-10.7571
煙	-10.7576
練	-10.7576
人々の	-10.7577
必須	-10.7577
を始める	-10.7581
としたら	-10.7582
避難	-10.7583
に行き	-10.7584
上げた	-10.7586
心地	-10.7586
屋根修理	-10.7588
ベイ	-10.7589
何より	-10.7591
伝説	-10.7593
支部	-10.7593
先生は	-10.7594
以外は	-10.7595
外出	-10.7595
ことができ	-10.7595
燃料	-10.7595
スタンド	-10.7598
当て	-10.76
保健	-10.7601
してくれ	-10.7601
没	-10.7601
スタッフが	-10.7603
飲食店	-10.7607
したとき	-10.761
嶋	-10.7611
とある	-10.7612
するなら	-10.7613
寛	-10.7614
ども	-10.7614
入門	-10.7615
グラフ	-10.7618
その中で	-10.7619
移	-10.762
著作権	-10.762
早期	-10.7624
月額	-10.7625
カナダ	-10.7627
ジム	-10.7627
を得る	-10.7627
判定	-10.7628
の商品	-10.7628
が強く	-10.7629
を行いました	-10.763
も含めて	-10.7633
装着	-10.7634
が低い	-10.7634
奪	-10.7637
っぱ	-10.7641
化粧	-10.7642
腐	-10.7643
もち	-10.7647
カップル	-10.7647
ウル	-10.7648
入荷	-10.765
信仰	-10.7651
教材	-10.7654
をもとに	-10.7658
死ぬ	-10.7658
砲	-10.766
穂	-10.766
美人	-10.7661
小物	-10.7662
経費	-10.7662
vi	-10.7662
もありました	-10.7663
正確に	-10.7663
いきました	-10.7663
っていく	-10.7665
独特の	-10.7666
が難しい	-10.7666
印鑑	-10.7668
足を	-10.7668
入れる	-10.767
▁東京都	-10.7672
試み	-10.7673
仰	-10.7675
大人気	-10.7679
たけど	-10.768
言われて	-10.7681
長野	-10.7681
をやって	-10.7682
講	-10.7685
と言われて	-10.769
のもと	-10.7691
典	-10.7691
回し	-10.7691
結び	-10.7691
当時は	-10.7693
all	-10.7695
イチ	-10.7695
根拠	-10.7698
ゲー	-10.7698
を感じ	-10.7699
令	-10.7699
鉢	-10.7699
浸透	-10.7699
花火	-10.77
のかもしれません	-10.7703
偶然	-10.7704
からこそ	-10.7705
上下	-10.7705
を発見	-10.7706
スレッド	-10.7706
入試	-10.7709
大正	-10.7709
翼	-10.7712
直後	-10.7714
ウン	-10.7716
遅く	-10.7716
めた	-10.7718
することも	-10.7719
と考えている	-10.772
委員長	-10.7724
しさ	-10.7725
をもつ	-10.7726
自宅で	-10.7726
▁あなたの	-10.7728
ではなかった	-10.7729
緩和	-10.7733
のみで	-10.7734
わかり	-10.7739
頭痛	-10.774
を上げる	-10.7743
原発	-10.7743
自然と	-10.7745
供	-10.7747
狭	-10.7747
株価	-10.7748
潤	-10.7748
勇	-10.7751
苦しい	-10.7751
内容を	-10.7755
並んで	-10.7758
姿を	-10.776
吸	-10.7761
すっきり	-10.7761
推奨	-10.7764
を発表	-10.7766
言え	-10.7766
血管	-10.7772
ドー	-10.7775
に加えて	-10.7776
と言える	-10.778
機能を	-10.7781
ig	-10.7782
自然に	-10.7782
サイクル	-10.7785
サイトで	-10.779
業績	-10.7791
ロンドン	-10.7792
与	-10.7794
の味	-10.7797
会社が	-10.7801
的で	-10.7801
きん	-10.7801
坊	-10.7802
を獲得	-10.7804
の時代	-10.7805
予選	-10.7805
サイトの	-10.7807
しめ	-10.7807
面で	-10.7809
ニック	-10.7812
と比べて	-10.7813
さら	-10.7814
に到着	-10.7815
一定の	-10.7815
▁本当に	-10.7816
本来の	-10.7816
霧	-10.7816
カウンセリング	-10.7817
乾	-10.7818
日々の	-10.7819
とお	-10.7819
やろう	-10.782
宅	-10.7822
前提	-10.7825
佳	-10.7826
NPO	-10.7828
開設	-10.7829
最後は	-10.783
起きて	-10.7833
敬	-10.7833
咲	-10.7834
に行きました	-10.7836
年前に	-10.7837
会員登録	-10.7837
丼	-10.7838
▁それから	-10.7838
行け	-10.784
生理	-10.7841
島の	-10.7844
チョコレート	-10.7845
施策	-10.7845
専用の	-10.7846
手で	-10.7847
あた	-10.7847
に向かう	-10.7851
条例	-10.7852
相手が	-10.7854
ツー	-10.7854
解体	-10.7855
当たる	-10.7856
▁JR	-10.7859
のようなもの	-10.7862
作品を	-10.7863
率は	-10.7863
テクニック	-10.7864
個人の	-10.7865
の形	-10.7865
スピーカー	-10.7867
ne	-10.7869
ずる	-10.7876
GA	-10.7877
らしいです	-10.7879
獣	-10.7879
GO	-10.7881
事も	-10.7881
を使用	-10.7884
いこう	-10.7884
ページの	-10.7886
会の	-10.7888
苦笑	-10.7889
倒	-10.789
案件	-10.7891
を図る	-10.7891
名称	-10.7891
格好	-10.7894
切る	-10.7894
虚	-10.7895
返事	-10.7896
二重	-10.7897
ご連絡	-10.7898
不倫	-10.7899
要請	-10.7901
協議会	-10.7905
描き	-10.791
まえ	-10.7911
釜	-10.7911
無駄	-10.7912
気をつけ	-10.7912
解約	-10.7913
貴方	-10.7916
埼玉	-10.7916
する必要があります	-10.7918
はどこ	-10.7919
を見つける	-10.7919
糖尿病	-10.792
対戦	-10.792
意義	-10.7921
失礼	-10.7924
を表示	-10.7924
ディスク	-10.7927
何度か	-10.7928
im	-10.7929
に伴う	-10.793
りする	-10.7931
ベン	-10.7931
初日	-10.7931
これからの	-10.7932
タンク	-10.7932
餌	-10.7933
で検索	-10.7934
たこと	-10.7934
劣	-10.7936
遊ぶ	-10.7939
プラットフォーム	-10.7939
拝	-10.794
を使用する	-10.794
ge	-10.7941
場合がございます	-10.7941
近代	-10.7941
を除く	-10.7945
グレー	-10.7945
に係る	-10.7946
といって	-10.7947
タブレット	-10.7947
地上	-10.7951
カレンダー	-10.7952
あらかじめ	-10.7952
メモリ	-10.7955
若手	-10.7957
聴き	-10.7958
お子さん	-10.796
やってきた	-10.7962
じゃないですか	-10.7963
並ぶ	-10.7964
協議	-10.7965
壊	-10.7967
定期的に	-10.7968
虎	-10.7968
はすべて	-10.7969
そのとき	-10.797
透明	-10.7971
肌の	-10.7972
嵐	-10.7974
癌	-10.7977
に見える	-10.7977
エビ	-10.7978
▁高	-10.7979
ご購入	-10.7981
医薬品	-10.7982
支店	-10.7983
方向に	-10.7983
さを	-10.7985
川の	-10.7985
遅	-10.7986
上がった	-10.7987
回線	-10.7989
貢献	-10.799
▁つまり	-10.7991
感じで	-10.7992
中華	-10.7995
意思	-10.7996
ハーブ	-10.7997
ol	-10.7998
人が多い	-10.7999
誠	-10.7999
本番	-10.8002
困った	-10.8002
▁花	-10.8002
耐	-10.8003
ホー	-10.8005
秘	-10.8007
突	-10.8007
てい	-10.8008
価格で	-10.8008
研究者	-10.8009
行っている	-10.8013
フラ	-10.8018
ができない	-10.8021
シュー	-10.8021
外観	-10.8024
シス	-10.8025
ことができた	-10.8026
NG	-10.8027
大学院	-10.803
を導入	-10.8032
によれば	-10.8035
規格	-10.8036
させること	-10.8038
できるよう	-10.8039
手帳	-10.8041
を見つけ	-10.8046
自民党	-10.8047
接触	-10.8047
高度	-10.805
わかった	-10.8055
あんな	-10.8056
後で	-10.8059
エンド	-10.8059
夜は	-10.8061
思	-10.8061
奏	-10.8066
を検索	-10.8066
の中心	-10.8066
もらいたい	-10.8067
染め	-10.8069
ことが出来る	-10.8071
と言います	-10.8072
ベビー	-10.8072
海の	-10.8073
シフト	-10.8073
自体は	-10.8084
SC	-10.8087
洋服	-10.8091
肥	-10.8093
筆者	-10.8096
泥	-10.8097
くま	-10.8097
以前の	-10.8098
MC	-10.8099
ポスター	-10.8101
ではないでしょうか	-10.8102
愛知県	-10.8102
上野	-10.8102
頃から	-10.8103
静岡県	-10.8103
ce	-10.8104
同じく	-10.8104
をかけ	-10.8105
に興味	-10.8106
ポスト	-10.8106
含む	-10.8108
真ん中	-10.811
の道	-10.8111
観客	-10.8112
攻略	-10.8112
ai	-10.8114
裁	-10.8115
雨漏	-10.8115
高等学校	-10.8116
:「	-10.8117
貸し	-10.8119
付近	-10.8119
▁夏	-10.8119
BA	-10.812
ねば	-10.8121
カート	-10.8121
おじさん	-10.8128
発達	-10.8129
知らず	-10.8129
わか	-10.8134
ねん	-10.8135
が変わる	-10.8136
しなければ	-10.8136
ハリ	-10.8137
何処	-10.8139
お手伝い	-10.814
仏教	-10.814
テロ	-10.814
▁c	-10.8141
弁当	-10.8146
採	-10.8149
運行	-10.8149
なしで	-10.8149
楽しみです	-10.815
閉じ	-10.8151
ぶん	-10.8152
nd	-10.8152
妙	-10.8152
おかげで	-10.8153
今回も	-10.8154
はずだ	-10.8154
▁ところで	-10.8155
創作	-10.8155
これに	-10.8155
オークション	-10.8157
ここの	-10.8157
▁やはり	-10.8158
の前で	-10.816
お話を	-10.8162
を知って	-10.8163
きている	-10.8163
ディング	-10.8164
崩壊	-10.8165
頂きました	-10.8166
主人	-10.8169
レーザー	-10.817
悲しい	-10.8171
ミッション	-10.8172
記入	-10.8172
翌	-10.8172
取れる	-10.8173
大学生	-10.8174
▁◇	-10.8174
でしたね	-10.8175
貫	-10.8175
鑑賞	-10.8175
二十	-10.8181
進学	-10.8181
土日	-10.8181
の部屋	-10.8182
使え	-10.8185
証明書	-10.8186
ガル	-10.8187
LED	-10.8187
進め	-10.8188
食堂	-10.8195
マット	-10.8196
連合	-10.8198
価格は	-10.8198
迷	-10.8198
傘	-10.8199
いるのか	-10.8202
ショウ	-10.8202
豆腐	-10.8203
街道	-10.8203
抑制	-10.8204
をとる	-10.8204
▁⇒	-10.8206
頭を	-10.8206
マイクロ	-10.8206
細かく	-10.821
性の	-10.821
の宿	-10.8211
職種	-10.8213
もらいました	-10.8214
ヨン	-10.8215
は必ず	-10.8215
▁これが	-10.8215
富士山	-10.8216
▁みなさん	-10.8217
諦め	-10.8219
ード	-10.822
庵	-10.8224
受け入れ	-10.8224
セッション	-10.8226
ッパー	-10.8226
に基づき	-10.8226
崩	-10.8227
BS	-10.8227
▁黒	-10.8227
を使用した	-10.8228
に相談	-10.8229
ジュース	-10.823
んでしょうか	-10.823
りして	-10.823
シャワー	-10.8232
石川	-10.8232
話題の	-10.8233
診察	-10.8234
近所の	-10.8238
ッタ	-10.8239
タル	-10.824
単なる	-10.824
時間も	-10.8242
祐	-10.8243
テニス	-10.8245
数多く	-10.8247
の治療	-10.8249
昼間	-10.825
▁――	-10.825
以前に	-10.8251
化した	-10.8253
すこと	-10.8254
シルバー	-10.8257
種の	-10.8257
▁これで	-10.8258
鋼	-10.8262
我が	-10.8264
ニン	-10.8265
していません	-10.8266
ッカー	-10.8268
見えて	-10.8269
いている	-10.827
冷凍	-10.8271
それらの	-10.8272
が増える	-10.8272
の顔	-10.8272
砂糖	-10.8273
メー	-10.8275
洲	-10.8276
を有する	-10.8277
教科書	-10.828
SO	-10.8281
を買い	-10.8282
▁for	-10.8283
染	-10.8283
▁全	-10.8285
感じられる	-10.8286
っていました	-10.8286
本作	-10.8286
故障	-10.8288
になるので	-10.8288
ミュージック	-10.8289
違和感	-10.829
忘れて	-10.8291
お店の	-10.8291
支配	-10.8296
航	-10.8299
稽古	-10.8303
そりゃ	-10.8304
辛	-10.8307
レート	-10.8308
旬	-10.8309
矯正	-10.8309
はいけない	-10.831
が入って	-10.8312
人間関係	-10.8312
暗い	-10.8312
の人が	-10.8314
部位	-10.8314
自動的に	-10.8314
レーション	-10.8316
にゃ	-10.8318
心から	-10.8318
日曜	-10.832
磨	-10.8322
鑑定	-10.8323
寿命	-10.8324
優良	-10.8325
してみる	-10.8326
売れ	-10.8327
do	-10.8328
ランプ	-10.8328
は一切	-10.8329
釣	-10.8335
みれば	-10.8335
結婚相談所	-10.8339
▁今日も	-10.834
るために	-10.834
であるが	-10.8341
囲	-10.8342
最悪	-10.8342
アフリカ	-10.8342
蓋	-10.8342
↑	-10.8343
消費税	-10.8345
むら	-10.8345
浪	-10.8345
BC	-10.8349
抜け毛	-10.8349
通過	-10.835
浴衣	-10.8353
ファイルを	-10.8353
伴	-10.8355
芳	-10.8355
暴	-10.8357
町で	-10.8358
ばかりで	-10.8358
代金	-10.8358
ペース	-10.8359
興奮	-10.836
するのも	-10.8364
もしかしたら	-10.8365
申し	-10.8367
▲	-10.8367
言われた	-10.8367
溶け	-10.8373
のかもしれない	-10.8373
▁f	-10.8373
第三者	-10.8374
メルマガ	-10.8376
モリ	-10.8379
(※	-10.8379
不動産会社	-10.838
パスタ	-10.838
持つ	-10.8383
がい	-10.8386
があったので	-10.8386
の本	-10.8387
▁p	-10.8387
焼酎	-10.8391
所有	-10.8393
どちらか	-10.8395
お待ち	-10.8395
がんばって	-10.8396
表紙	-10.8396
に出て	-10.8396
▁X	-10.8397
を食べる	-10.8397
宏	-10.84
任意	-10.8401
ディスプレイ	-10.8402
合意	-10.8402
学者	-10.8403
ビット	-10.8404
いえ	-10.8405
笠	-10.8407
新潟県	-10.8407
と考えて	-10.8408
に出る	-10.8409
▁各	-10.8409
楽しかった	-10.8409
意欲	-10.841
▁それでも	-10.8412
しかしながら	-10.8414
していきたい	-10.8416
頂ける	-10.8417
▁@	-10.8419
の練習	-10.8419
ざる	-10.8425
up	-10.8426
すき	-10.8429
かもしれませんね	-10.843
▁それにしても	-10.8431
区間	-10.8431
net	-10.8435
ナンバー	-10.8436
というと	-10.8437
当選	-10.8438
ブース	-10.8441
ボス	-10.8442
ion	-10.8448
モーター	-10.8451
剛	-10.8453
耳に	-10.8453
なんだろう	-10.8454
ますよね	-10.8457
たもの	-10.8458
聴いて	-10.8458
おりました	-10.8459
の役割	-10.8459
この時期	-10.8461
行ける	-10.8465
載って	-10.8466
昭	-10.8469
束	-10.847
チャート	-10.8472
チラシ	-10.8473
ないといけない	-10.8476
正社員	-10.8476
を考え	-10.848
やる気	-10.8483
をダウンロード	-10.8484
勤め	-10.8485
メンズ	-10.8486
わけではありません	-10.8491
気持ちを	-10.8493
▁春	-10.8493
するまで	-10.8496
の湯	-10.8496
わん	-10.8496
テント	-10.8499
を行うこと	-10.8499
ることができます	-10.8502
自主	-10.8502
側面	-10.8502
な感じ	-10.8504
サル	-10.8508
合わない	-10.8509
を得て	-10.8509
決意	-10.8511
を始めた	-10.8514
当社の	-10.8517
だか	-10.852
痩せ	-10.852
レベルの	-10.8521
翔	-10.8523
苦手	-10.8523
沿い	-10.8525
ることが	-10.8525
と感じる	-10.8526
視線	-10.8526
産地	-10.8528
感染症	-10.8532
期間中	-10.8533
mi	-10.854
取扱	-10.8542
▁以前	-10.8545
新鮮な	-10.8545
上部	-10.8548
おい	-10.8551
est	-10.8553
中継	-10.8553
わず	-10.8553
ko	-10.8556
川崎	-10.8557
儀	-10.8558
らなかった	-10.856
執筆	-10.856
開放	-10.8561
テンション	-10.8562
混乱	-10.8564
しゅ	-10.8566
が登場	-10.8568
はちょっと	-10.8568
越え	-10.8569
最適	-10.8571
マニア	-10.8573
かる	-10.8573
▁中国	-10.8574
千葉県	-10.8576
んだな	-10.8577
隣の	-10.8578
ill	-10.8583
を対象に	-10.8589
私たちが	-10.859
の意見	-10.8591
いで	-10.8591
山形	-10.8592
戻	-10.8593
相性	-10.8594
の御	-10.8595
選手の	-10.8598
を楽しんで	-10.8605
関係ない	-10.8606
備	-10.8606
綺麗に	-10.8607
椅子	-10.8607
を決める	-10.8608
恩	-10.8609
フラワー	-10.861
$	-10.861
デュ	-10.8612
引退	-10.8615
女性は	-10.8619
頭に	-10.8621
にしか	-10.8621
邪魔	-10.8622
との関係	-10.8622
のことです	-10.8622
←	-10.8624
三菱	-10.8624
折り	-10.8624
ふたり	-10.8624
基本的には	-10.8625
不良	-10.863
相互	-10.8631
の女性	-10.8633
上り	-10.8634
粗	-10.8634
皇	-10.8635
が発生し	-10.8636
して欲しい	-10.8636
通りに	-10.8637
ゲート	-10.8637
ドリ	-10.8638
ショット	-10.8638
発症	-10.8641
そこは	-10.8643
ネイル	-10.8643
%)	-10.8645
代わりに	-10.8645
二人の	-10.8647
ライター	-10.8648
チー	-10.8648
同様	-10.865
再開	-10.8653
発電	-10.8657
激しく	-10.8658
フィー	-10.8658
命令	-10.8659
体内	-10.8659
の方法	-10.8659
複雑	-10.866
始	-10.866
トライ	-10.8662
向かい	-10.8663
カニ	-10.8664
幻	-10.8664
たくなる	-10.8665
人間が	-10.8665
HD	-10.8666
点検	-10.8667
かかり	-10.8667
さき	-10.8668
散策	-10.867
いつもの	-10.8671
効果がある	-10.8672
防衛	-10.8672
っていない	-10.8672
思いました	-10.8673
キリ	-10.8674
しないで	-10.8675
ならず	-10.8676
借りる	-10.8677
されてる	-10.8679
埼玉県	-10.868
盗	-10.868
多数の	-10.868
じっくり	-10.8683
そうそう	-10.8684
ユーザ	-10.8688
青い	-10.8688
を売る	-10.8688
弥	-10.8689
ポケモン	-10.8694
新型	-10.8696
なければなりません	-10.8696
KO	-10.8698
ご存知	-10.8698
関係の	-10.8699
よって	-10.87
出てきた	-10.87
われる	-10.87
あくまでも	-10.87
聞	-10.8703
無事に	-10.8706
今までの	-10.8707
自慢	-10.8707
実習	-10.8709
繊維	-10.8709
▁結局	-10.871
強制	-10.871
▁他の	-10.8711
近隣	-10.8712
知り	-10.8712
ブロ	-10.8713
のポイント	-10.8714
福島県	-10.8716
受診	-10.8717
Apple	-10.8717
循環	-10.8718
のようです	-10.8722
消化	-10.8722
アルミ	-10.8723
往復	-10.8724
空き	-10.8724
の小	-10.8726
ましたね	-10.8727
書いてある	-10.8727
ストップ	-10.8729
仲良く	-10.873
受け付け	-10.8731
サービスを	-10.8733
の作成	-10.8733
の裏	-10.8735
ほんとに	-10.8735
僕も	-10.8736
倉庫	-10.8736
SD	-10.8737
というところ	-10.8739
ブラン	-10.8741
難しく	-10.8741
回って	-10.8742
未満	-10.8745
如	-10.8748
鎮	-10.8749
えん	-10.8749
すと	-10.8749
を作成	-10.875
▁次の	-10.8751
哲学	-10.8753
抱え	-10.8755
どれくらい	-10.8758
姉妹	-10.8758
含まれ	-10.876
分ほど	-10.876
ひたすら	-10.876
をしたり	-10.8761
見通し	-10.8762
声を	-10.8763
防水	-10.8765
を検討	-10.8768
センサー	-10.8768
裁判所	-10.8771
感じた	-10.8773
英会話	-10.8773
欄	-10.8774
誘導	-10.8775
あちこち	-10.8778
冷たい	-10.8779
でもあります	-10.8779
昌	-10.878
大事	-10.8783
牧	-10.8783
不可能	-10.8784
を見せ	-10.8785
何らかの	-10.8785
▁一方	-10.8789
の為に	-10.8789
いつまでも	-10.879
してみると	-10.879
沈	-10.8791
アップデート	-10.8791
すり	-10.8792
ターゲット	-10.8793
準	-10.8796
テック	-10.8796
を提供する	-10.8798
複雑な	-10.88
入場	-10.8806
それと	-10.8807
出勤	-10.8808
木村	-10.8809
してみた	-10.8809
拒否	-10.881
プレス	-10.881
どのくらい	-10.8812
つけた	-10.8814
まっ	-10.8815
シル	-10.8816
嫌な	-10.8818
はなかった	-10.882
意見を	-10.882
候	-10.8822
理念	-10.8822
訴訟	-10.8824
麗	-10.8827
みたいで	-10.8828
返品	-10.8828
関連の	-10.883
ありがたい	-10.883
ドライ	-10.8832
こころ	-10.884
んじゃない	-10.8841
EL	-10.8842
▁俺	-10.8843
地点	-10.8847
わけですが	-10.885
ような気がします	-10.885
くれます	-10.8853
スカイ	-10.8853
ロウ	-10.8853
ブレーキ	-10.8854
長時間	-10.8854
お電話	-10.8854
ap	-10.8858
は少し	-10.886
呼んで	-10.886
王子	-10.8861
しようとする	-10.8863
スカート	-10.8865
体感	-10.8865
工学	-10.8866
いけば	-10.8866
帝	-10.8868
監査	-10.8869
かっこいい	-10.887
コマ	-10.8874
効	-10.8886
下手	-10.8886
上海	-10.8887
怪我	-10.8887
意図	-10.889
達が	-10.8891
ないもの	-10.8893
称	-10.8895
しまうと	-10.89
以前から	-10.8904
添え	-10.8906
てくれた	-10.8906
のメンバー	-10.8906
記事を	-10.8908
われた	-10.8909
がございます	-10.8912
庫	-10.8912
カテゴリー	-10.8914
一見	-10.8915
出来た	-10.8915
コウ	-10.8918
をすると	-10.8919
以前は	-10.8919
と思うのですが	-10.8919
ることは	-10.8921
ちょう	-10.8921
ナス	-10.8922
冒険	-10.8922
ワークショップ	-10.8923
京都府	-10.8924
帰国	-10.8928
大阪市	-10.8929
昇	-10.8929
代目	-10.893
を切り	-10.8933
迫	-10.8933
ということが	-10.8933
▁Y	-10.8934
回避	-10.8934
を購入	-10.8936
負荷	-10.8936
色が	-10.8937
オル	-10.8937
活性化	-10.8939
カツ	-10.894
舟	-10.8943
構想	-10.8943
出会った	-10.8946
乗って	-10.8948
車が	-10.8949
コンクリート	-10.895
ってきた	-10.8951
国会	-10.8952
行われる	-10.8952
へ行く	-10.8953
がほとんど	-10.8954
伊勢	-10.8956
時期に	-10.8958
シール	-10.896
富山	-10.8962
イエス	-10.8964
現場で	-10.8965
を楽しみ	-10.8965
味が	-10.8965
リップ	-10.8966
いな	-10.8966
の奥	-10.8968
このページ	-10.897
系統	-10.897
の経験	-10.8971
キッズ	-10.8972
炒め	-10.8972
グランド	-10.8973
スムーズに	-10.8973
プレート	-10.8973
紋	-10.8974
当サイト	-10.8975
神奈川	-10.8976
羊	-10.8979
免疫	-10.8979
ご覧	-10.898
価値観	-10.898
革命	-10.898
するのに	-10.8981
Amazon	-10.8984
流し	-10.8986
そうに	-10.8989
遺跡	-10.8991
果たして	-10.8991
みなさま	-10.8994
担	-10.8994
踏	-10.8997
ヨー	-10.8997
▁U	-10.8998
▁相場	-10.8998
ベトナム	-10.8999
言われる	-10.8999
頻繁に	-10.9002
郵便	-10.9005
自体が	-10.9005
分離	-10.9008
リオ	-10.9009
ガード	-10.9011
の確認	-10.9011
▁当	-10.9013
一定	-10.9014
頻度	-10.9015
当社は	-10.9016
立って	-10.9016
決めて	-10.9017
ナチュラル	-10.9018
タバコ	-10.9019
賢	-10.9021
このサイト	-10.9022
寒さ	-10.9022
すばらしい	-10.9024
状況を	-10.9024
を採用	-10.9025
離れて	-10.9026
作られた	-10.9026
撮って	-10.9027
に来る	-10.9029
ine	-10.903
博多	-10.903
▁映画	-10.903
ガイ	-10.9031
おもしろい	-10.9032
偽	-10.9033
この日は	-10.9034
貿易	-10.9034
かも知れない	-10.9034
ではありますが	-10.9037
本線	-10.9041
リック	-10.9041
計測	-10.9042
に入れ	-10.9044
名を	-10.9044
手続	-10.9046
水素	-10.9046
録画	-10.9048
ないのに	-10.9051
テレビで	-10.9051
を中心とした	-10.9053
選定	-10.9056
パーティ	-10.9056
男の子	-10.9059
なんとも	-10.9061
屋の	-10.9062
いろいろと	-10.9063
牛乳	-10.9065
してみて	-10.9067
出店	-10.9068
寄付	-10.9069
千円	-10.9069
と言われた	-10.9072
を抑え	-10.9074
▁皆さん	-10.9076
昔は	-10.9077
は全て	-10.908
自立	-10.9082
を変え	-10.9082
ワクワク	-10.9084
多様な	-10.9084
書かれた	-10.9084
をかける	-10.9086
向こう	-10.9086
時刻	-10.9086
とされる	-10.9088
アピール	-10.9088
犯	-10.9088
部屋に	-10.9088
作曲	-10.9089
替	-10.9092
生涯	-10.9092
▁南	-10.9097
のなかで	-10.9097
||	-10.9099
コンパクト	-10.9101
内科	-10.9103
沙	-10.9104
自身が	-10.9108
帽子	-10.9109
蒸し	-10.9109
ローカル	-10.911
再現	-10.911
▁無料	-10.9111
コスメ	-10.9112
ないよう	-10.9113
過ごし	-10.9114
日経	-10.9115
祖	-10.9116
瞳	-10.9116
元気に	-10.9116
長さ	-10.9119
んだが	-10.912
部屋の	-10.912
ものではない	-10.9122
驚いた	-10.9123
であると	-10.9123
保有	-10.9123
下がり	-10.9123
どん	-10.9124
保険料	-10.9124
してしまい	-10.9125
を大きく	-10.9126
残業	-10.9127
今後は	-10.9128
男の	-10.913
慣れ	-10.913
by	-10.9131
隅	-10.9134
に合わせた	-10.9135
賃金	-10.9136
なっています	-10.9137
此	-10.9138
を見せて	-10.9139
に追加	-10.914
勤	-10.914
CS	-10.9141
知人	-10.9145
伏	-10.9148
交差点	-10.9149
茨城県	-10.9151
えば	-10.9154
イス	-10.9155
歌手	-10.9156
日本人の	-10.916
医療機関	-10.9162
経緯	-10.9162
医者	-10.9164
村の	-10.9164
起き	-10.9164
LAN	-10.9167
仮に	-10.9168
フォン	-10.9169
やす	-10.917
磯	-10.9172
度に	-10.9173
の基礎	-10.9174
の対象	-10.9175
濃	-10.9176
が見える	-10.9179
皆さま	-10.9179
金沢	-10.918
で一番	-10.9185
っ子	-10.9185
君は	-10.9187
出身の	-10.9187
せた	-10.9188
RSS	-10.9191
今朝	-10.9192
溢れ	-10.9194
自覚	-10.9194
保湿	-10.9195
がないので	-10.9195
シューズ	-10.9196
DE	-10.9199
途	-10.9203
。【	-10.9204
んと	-10.9205
はよく	-10.9207
ジャズ	-10.921
暑さ	-10.9211
をとり	-10.9211
家事	-10.9212
総額	-10.9213
ばっかり	-10.9214
フォーラム	-10.9218
人たちが	-10.9219
してました	-10.9219
ケータイ	-10.922
猿	-10.922
使われている	-10.922
する際に	-10.9221
▁なぜ	-10.9222
自らの	-10.9222
久々に	-10.9223
ウス	-10.9228
効果は	-10.9228
神の	-10.9232
クマ	-10.9233
アメ	-10.9235
ほかの	-10.9235
業者に	-10.9235
回る	-10.9241
耕	-10.9242
アイコン	-10.9243
厳しく	-10.9243
ってしまった	-10.9244
昨日の	-10.9245
がなかった	-10.9246
おめでとうございます	-10.9247
地域で	-10.925
気配	-10.925
改造	-10.9252
▁商品	-10.9253
補償	-10.9254
ピーク	-10.9256
上映	-10.9259
という方	-10.9261
持参	-10.9265
を開発	-10.9269
シャン	-10.927
日常生活	-10.927
崩れ	-10.9271
の雰囲気	-10.9273
舎	-10.9274
見直し	-10.9276
枕	-10.9278
スタン	-10.9278
本店	-10.9278
袖	-10.9278
届け	-10.9281
本格的な	-10.9281
朝の	-10.9282
なくなります	-10.9284
よろしくお願いいたします	-10.9285
快適な	-10.9286
でいい	-10.9288
帝国	-10.9288
指標	-10.929
際には	-10.9291
時点	-10.9291
▁それに	-10.9291
交付	-10.9293
ボート	-10.9293
^)	-10.9294
になっても	-10.9296
定着	-10.9297
ローマ	-10.9297
起こる	-10.9297
のバランス	-10.9298
少なく	-10.9298
ようになります	-10.9298
抜く	-10.9298
TE	-10.9298
を維持	-10.9299
情報の	-10.93
体質	-10.93
が始まる	-10.93
決まって	-10.9301
上手	-10.9304
がかなり	-10.9305
ポップ	-10.9308
喉	-10.9308
商品は	-10.9308
のデータ	-10.9309
けた	-10.9309
同僚	-10.931
する人	-10.9313
終了後	-10.9314
謝	-10.9315
なりません	-10.9317
どんなに	-10.9317
差別	-10.9325
発表した	-10.9327
鎌倉	-10.9327
そこそこ	-10.933
があったら	-10.933
応え	-10.9331
同じような	-10.9333
朝日	-10.9334
らせる	-10.9334
にくく	-10.9334
があるから	-10.9335
は少ない	-10.9335
よかったです	-10.9335
と思われ	-10.9336
グレ	-10.9336
出来ません	-10.9337
の方も	-10.9337
場で	-10.9339
溝	-10.9339
なのが	-10.934
キレイ	-10.9341
柏	-10.9342
ユーロ	-10.9344
生きている	-10.9345
を迎える	-10.9346
ゾーン	-10.9347
マイク	-10.9349
車買取	-10.9352
ワクチン	-10.9352
決勝	-10.9355
早朝	-10.9355
続けている	-10.9357
AD	-10.9357
ようとする	-10.9358
年前の	-10.9358
寺の	-10.936
になったり	-10.9361
ジョー	-10.9361
まつ	-10.9361
and	-10.9363
かわからない	-10.9363
の会	-10.9363
システムの	-10.9364
が気になる	-10.9365
に合った	-10.9365
してみてください	-10.9365
チャット	-10.9367
身近な	-10.9367
知ってる	-10.9368
問い	-10.9369
申告	-10.9371
の改善	-10.9371
用紙	-10.9374
に比べ	-10.9375
家族の	-10.9376
知恵	-10.9377
ニャ	-10.938
ee	-10.9381
食べたい	-10.9381
ケー	-10.9382
ご家族	-10.9383
度の	-10.9383
ブックマーク	-10.9384
もうすぐ	-10.9384
バトル	-10.9385
の実	-10.9386
圧力	-10.9386
部分に	-10.9388
マイル	-10.9389
ストレート	-10.939
知らなかった	-10.939
毎	-10.9394
日本は	-10.9396
あや	-10.9396
変わります	-10.9398
簡易	-10.94
的にも	-10.9401
だよね	-10.9401
玄	-10.9402
企業が	-10.9403
回の	-10.9403
▁続きを読む	-10.9406
共感	-10.9406
がありますので	-10.9406
光景	-10.9407
そういうこと	-10.9408
架	-10.9408
更	-10.9411
を出し	-10.9411
臨時	-10.9412
を学ぶ	-10.9412
の香り	-10.9413
ディア	-10.9413
式の	-10.9416
`)	-10.9419
サイトです	-10.9419
お使い	-10.942
机	-10.9422
インパクト	-10.9422
にわたって	-10.9422
天使	-10.9424
プラスチック	-10.9425
分で	-10.9425
ay	-10.9426
があっても	-10.9428
マスコミ	-10.9428
を求め	-10.943
在宅	-10.943
ell	-10.9432
▁それが	-10.9433
否	-10.9433
北朝鮮	-10.9434
老人	-10.9434
テー	-10.9435
デザート	-10.9443
付いた	-10.9444
彼女が	-10.9445
やめて	-10.9448
▁コピー	-10.9448
ie	-10.9449
ファースト	-10.945
フロア	-10.9454
外れ	-10.9455
──	-10.9455
のいい	-10.9456
が生じ	-10.9456
完	-10.9457
人も多い	-10.9458
菓子	-10.9458
金曜日	-10.9458
があるのか	-10.946
保持	-10.9461
がち	-10.9462
結果は	-10.9466
歌う	-10.9466
どうせ	-10.9467
らし	-10.9467
論理	-10.9472
の授業	-10.9473
送って	-10.9473
を得	-10.9474
居住	-10.9475
フリ	-10.9476
ろうと	-10.9476
ギャ	-10.9476
がつく	-10.9477
神奈川県	-10.948
ET	-10.9481
教える	-10.9483
ようにしましょう	-10.9485
がわかる	-10.9485
実際には	-10.9485
並び	-10.9486
▁この記事	-10.9488
同社	-10.9489
キャンパス	-10.9489
リカ	-10.949
って何	-10.949
明らか	-10.949
ソウル	-10.9493
気づいた	-10.9493
UN	-10.9502
カラオケ	-10.9502
思っている	-10.9502
敏	-10.9503
観音	-10.9504
大いに	-10.9507
の導入	-10.9508
半島	-10.951
▁明日	-10.951
岐阜	-10.9512
およそ	-10.9512
個室	-10.9512
と同じように	-10.9514
というより	-10.9515
比率	-10.9518
になりますが	-10.9519
本気で	-10.9519
俺が	-10.952
ある意味	-10.9521
をしたい	-10.9521
おられる	-10.9524
ライダー	-10.9524
絵画	-10.9526
刃	-10.9528
製品の	-10.9529
ビジョン	-10.9529
お越し	-10.9531
独自	-10.9533
分野で	-10.9533
疲労	-10.9536
って言う	-10.9537
見えます	-10.9538
最適な	-10.9538
どおり	-10.9538
過ぎた	-10.9539
申し上げます	-10.9539
区の	-10.9543
猛	-10.9543
直前	-10.9543
キーボード	-10.9543
弓	-10.9543
~~	-10.9545
ちょい	-10.9545
ばかりの	-10.9545
北京	-10.9546
オーディオ	-10.9547
みんなの	-10.9547
づらい	-10.9547
抜群	-10.9549
店頭	-10.9551
合同	-10.9552
測	-10.9553
辞	-10.9553
Wi	-10.9555
ソニー	-10.9558
あつ	-10.9559
に乗る	-10.9561
っていて	-10.9563
ラル	-10.9563
こい	-10.9564
副業	-10.9564
復興	-10.9565
この本	-10.9566
唐	-10.9566
ブラジル	-10.9566
致	-10.9567
変え	-10.9568
年生の	-10.9568
婚	-10.9574
天候	-10.9574
会社で	-10.9575
GI	-10.9576
CH	-10.9577
場合もあります	-10.9577
分かります	-10.9578
続けた	-10.9579
関数	-10.958
実装	-10.9581
好きです	-10.9588
戻り	-10.959
っちゃん	-10.959
国語	-10.9593
つま	-10.9593
飛行	-10.9598
に役立つ	-10.9598
レモン	-10.9599
といわれる	-10.96
閉鎖	-10.96
ひき	-10.96
譲	-10.9601
検定	-10.9602
per	-10.9603
総会	-10.9605
の元	-10.9605
参考に	-10.9608
はなかなか	-10.9609
トータル	-10.961
blog	-10.961
だったのですが	-10.9611
そこには	-10.9614
全員が	-10.9614
るから	-10.9616
珍しく	-10.9616
訪れる	-10.9617
っても	-10.9619
混雑	-10.9619
をとって	-10.9621
ふるさと	-10.9621
宮城県	-10.9624
逮捕	-10.9627
付けて	-10.9628
確立	-10.963
スキンケア	-10.963
単独	-10.9633
巨大	-10.9634
入金	-10.9634
被害者	-10.9636
使われる	-10.9636
▁次に	-10.9637
の戦い	-10.9638
ヤツ	-10.964
あきらめ	-10.964
ユニ	-10.9641
▁もっと	-10.9643
井上	-10.9643
にあたり	-10.9644
ところを	-10.9644
伊豆	-10.9647
くださった	-10.9647
Yahoo	-10.9649
渡辺	-10.9651
の概要	-10.9651
プログラミング	-10.9651
ment	-10.9657
を誇る	-10.966
響き	-10.9666
泰	-10.9666
の際	-10.9668
を手に	-10.967
憲	-10.9671
感じです	-10.9672
みんなが	-10.9673
五輪	-10.9673
ゲット	-10.9673
量が	-10.9675
人がいる	-10.9676
短く	-10.9677
名が	-10.9678
アク	-10.9678
毛穴	-10.9679
服装	-10.968
に入れる	-10.968
を比較	-10.968
器具	-10.9682
スッキリ	-10.9686
童	-10.9687
ボトル	-10.9693
ていきます	-10.9693
を含め	-10.9694
問題を	-10.9695
見たこと	-10.9695
のではないかと	-10.9697
名は	-10.9698
仲介	-10.9698
鈴	-10.9698
コンサルティング	-10.9699
巨大な	-10.97
荒れ	-10.9701
違って	-10.9704
ステーション	-10.9706
損害	-10.9706
援助	-10.9711
合った	-10.9713
求める	-10.9715
たくて	-10.9715
考察	-10.9715
ではなくて	-10.9716
月曜日	-10.9717
アマゾン	-10.9717
の方へ	-10.9717
幸せな	-10.9722
バンク	-10.9723
の街	-10.9727
お気に入りの	-10.9728
るし	-10.973
ps	-10.9733
故	-10.9734
胆	-10.9739
スコア	-10.9739
モンスター	-10.9739
があったり	-10.974
暖かい	-10.9741
次郎	-10.9742
中身	-10.9742
頂いて	-10.9743
挙げ	-10.9745
妄想	-10.9746
hi	-10.9747
都内	-10.9748
バター	-10.9748
これ以上	-10.9749
できている	-10.9749
▁ホテル	-10.9751
コンテスト	-10.9751
を超えて	-10.9752
かしら	-10.9753
▁新しい	-10.9754
と言えます	-10.9756
もう一つ	-10.9758
月には	-10.9758
ほん	-10.9759
進み	-10.9759
めん	-10.9759
液晶	-10.9761
はどんな	-10.9761
どこの	-10.9763
蓄積	-10.9763
資本	-10.9764
▁とにかく	-10.9765
だけを	-10.9766
▁No	-10.9766
ハンドル	-10.9769
手軽に	-10.9771
の際は	-10.9773
リフト	-10.9773
並み	-10.9774
等に	-10.9775
理由で	-10.9775
の成長	-10.9776
遺	-10.9776
入浴	-10.978
ちん	-10.9781
スピ	-10.9782
々しい	-10.9782
たりする	-10.9783
損失	-10.9785
お料理	-10.9785
▁その他の	-10.9788
区別	-10.9789
通い	-10.9791
でお	-10.9792
ドゥ	-10.9793
容器	-10.9795
剥	-10.9796
保障	-10.9796
スタッフの	-10.9799
保育士	-10.9799
かも知れません	-10.9799
one	-10.98
飲んだ	-10.98
演劇	-10.98
することに	-10.9801
のだから	-10.9802
などなど	-10.9805
知った	-10.9808
拓	-10.9809
綾	-10.9809
ないのか	-10.981
抽選	-10.981
は大変	-10.9813
を進める	-10.9814
ゼン	-10.9816
学年	-10.9818
正面	-10.982
移行	-10.9823
協	-10.9824
車査定	-10.9828
つらい	-10.9828
幸い	-10.9829
徒	-10.9829
事業所	-10.9829
商業	-10.983
冒頭	-10.9831
残った	-10.9831
脂	-10.9832
恥ずかしい	-10.9835
接客	-10.9836
らしさ	-10.9838
班	-10.9838
干し	-10.9839
埋め	-10.9839
届く	-10.9839
暦	-10.984
よりは	-10.9842
駄目	-10.9842
ティック	-10.9845
こな	-10.9845
とは違う	-10.9846
じょう	-10.9847
を掲載	-10.9849
モール	-10.985
皆様の	-10.9852
▁今年は	-10.9855
ディズニー	-10.9856
露天風呂	-10.9857
強度	-10.9857
問題が	-10.9857
頃に	-10.9858
メジャー	-10.9858
方や	-10.9859
をしながら	-10.9859
先端	-10.9863
RI	-10.9866
Re	-10.9867
ラウンド	-10.9868
汚染	-10.9869
ue	-10.987
告げ	-10.987
ェ	-10.9873
唯一	-10.9875
考	-10.9875
反射	-10.9876
立派な	-10.9876
ーー	-10.9877
隠し	-10.9878
決断	-10.988
サム	-10.9881
すみ	-10.9881
建て	-10.9882
豪華	-10.9883
いじ	-10.9883
死んで	-10.9884
才能	-10.9887
うま	-10.9888
珠	-10.9888
かし	-10.9889
言葉に	-10.989
してない	-10.9892
揃え	-10.9892
▁¥	-10.9894
ある日	-10.9895
▁最後に	-10.9895
田さん	-10.9896
を提案	-10.9896
まき	-10.9897
細い	-10.9898
履歴	-10.9899
売れる	-10.99
作れる	-10.9901
満載	-10.9903
なんですね	-10.9904
ができた	-10.9906
行列	-10.9906
んだろ	-10.9911
のとき	-10.9912
移住	-10.9913
べく	-10.9913
如何	-10.9914
点を	-10.9917
あさ	-10.9918
認知症	-10.9919
仕事で	-10.9921
デル	-10.9921
のイベント	-10.9921
▁—	-10.9922
っぽく	-10.9922
寮	-10.9922
蘭	-10.9923
それとも	-10.9923
考えると	-10.9923
十二	-10.9925
説明会	-10.9925
モテ	-10.9926
と違って	-10.9926
と考え	-10.993
庭園	-10.993
ハッピー	-10.993
ッター	-10.9931
個人的に	-10.9932
ことになった	-10.9933
をどう	-10.9935
コロ	-10.9936
いと	-10.9936
しますので	-10.9937
チームの	-10.9938
暮らす	-10.9938
かどうかは	-10.9939
人から	-10.9939
排出	-10.9941
番目	-10.9945
池田	-10.9945
を用意	-10.9946
インフルエンザ	-10.9947
閣	-10.9948
めぐり	-10.9949
めっちゃ	-10.9949
辞書	-10.995
利用規約	-10.9951
特急	-10.9952
ラック	-10.9953
のコメント	-10.9954
滑り	-10.9957
るという	-10.9957
ag	-10.996
普段は	-10.9961
この日	-10.9961
の対応	-10.9962
中野	-10.9964
ミックス	-10.9965
でなく	-10.9967
唇	-10.9968
発注	-10.9969
消え	-10.9979
どこまで	-10.998
サクラ	-10.9981
ができて	-10.9984
レディ	-10.9984
▁《	-10.9984
打ち合わせ	-10.9985
今のところ	-10.9986
抑え	-10.9987
RT	-10.9989
回路	-10.999
のお話	-10.9991
sh	-10.9991
の整備	-10.9991
コラボ	-10.9991
Co	-10.9992
あっという間に	-10.9992
のみならず	-10.9996
つて	-10.9996
るのに	-10.9999
するためには	-11
であることを	-11
頭が	-11.0001
庄	-11.0001
学院	-11.0001
を変えて	-11.0002
横に	-11.0003
うか	-11.0005
やっぱ	-11.0005
二つの	-11.0005
中は	-11.0007
フィット	-11.0007
SI	-11.0009
PO	-11.001
錠	-11.0011
点は	-11.0013
仕事に	-11.0013
持続	-11.0014
ハル	-11.0015
行い	-11.0015
配達	-11.0016
なくなりました	-11.0017
ドーム	-11.0017
を食べて	-11.0018
カタ	-11.0018
は特に	-11.0019
):	-11.0021
期の	-11.0021
カジュアル	-11.0021
どー	-11.0025
と呼ばれ	-11.0026
三重県	-11.0027
大半	-11.0028
が行われ	-11.0029
みず	-11.0029
全体的に	-11.0029
目の前に	-11.0031
ミラー	-11.0034
あふれる	-11.0034
AP	-11.0035
スクリーン	-11.0035
愛用	-11.0035
蘇	-11.0035
ラップ	-11.0036
という感じ	-11.0036
コル	-11.0037
出せる	-11.0039
の質	-11.004
となっております	-11.0041
だす	-11.0041
でしか	-11.0042
リクエスト	-11.0044
けい	-11.0044
寂しい	-11.0045
想	-11.0049
商売	-11.0049
三つ	-11.005
笑顔で	-11.005
▁b	-11.005
部隊	-11.005
に貢献	-11.0051
この度	-11.0051
ドキドキ	-11.0051
名物	-11.0052
いけない	-11.0055
放題	-11.0056
クー	-11.0056
周りに	-11.0056
にも関わらず	-11.0058
ベンチ	-11.0058
原稿	-11.0058
存	-11.0058
欧米	-11.0058
スペック	-11.0059
東大	-11.0059
と聞いて	-11.0061
ゴン	-11.0061
om	-11.0061
審	-11.0061
くれない	-11.0062
要件	-11.0062
動いて	-11.0063
サラリーマン	-11.0063
菅	-11.0067
ard	-11.0071
かけた	-11.0072
の里	-11.0074
女性に	-11.0076
られていた	-11.0078
▁前回	-11.0083
目は	-11.0084
パパ活	-11.0086
服用	-11.0087
間違って	-11.0087
必ずしも	-11.009
▁本日	-11.0092
がり	-11.0093
ドラゴン	-11.0093
決めた	-11.0094
渋	-11.0095
お出かけ	-11.0096
カス	-11.0096
西洋	-11.0099
ガラ	-11.0101
シナリオ	-11.0101
日には	-11.0102
アンド	-11.0102
将来の	-11.0102
いっ	-11.0103
を支える	-11.0104
▁女性	-11.0104
業種	-11.0105
トウ	-11.0106
強み	-11.0107
に使う	-11.0107
生き方	-11.0108
取った	-11.0109
大量	-11.011
まくり	-11.0113
マネージャー	-11.0116
コミック	-11.0119
ブラウン	-11.0122
あまりに	-11.0123
芸能人	-11.0123
肺	-11.0124
アンテナ	-11.0125
つかない	-11.0125
内装	-11.0128
分布	-11.0128
っちゃった	-11.013
懸念	-11.0135
大根	-11.0135
Fi	-11.0137
大橋	-11.014
▁そもそも	-11.014
ポー	-11.014
執	-11.0142
琴	-11.0143
HO	-11.0143
に立ち	-11.0145
も必要	-11.0146
の知識	-11.0149
我が家の	-11.0149
たれ	-11.015
っちゃう	-11.0151
分かった	-11.0154
わかりやすく	-11.0154
もたくさん	-11.0155
▁時計	-11.0157
解散	-11.0159
上限	-11.0159
ソング	-11.0159
と言うこと	-11.0159
何の	-11.016
際の	-11.016
テラス	-11.0162
ビス	-11.0162
ポール	-11.0164
わかりやすい	-11.0165
推移	-11.0165
夜間	-11.0166
入札	-11.0167
▁最近の	-11.0167
OFF	-11.0168
を変更	-11.0168
休暇	-11.0171
前回の	-11.0176
河川	-11.0176
キャッシュ	-11.0177
食べられる	-11.0178
老舗	-11.0179
渋滞	-11.018
落ち着いた	-11.0181
の無い	-11.0182
カム	-11.0182
カナ	-11.0183
連結	-11.0183
したのですが	-11.0184
順位	-11.0185
安全な	-11.0185
ヒル	-11.0185
向けに	-11.0186
結成	-11.0186
見つけた	-11.0189
新鮮	-11.019
で見る	-11.019
何故か	-11.0191
酸素	-11.0191
排水	-11.0192
求人情報	-11.0194
間違いなく	-11.0194
を教えて	-11.0195
スロット	-11.0196
シェル	-11.0197
青森	-11.0198
大豆	-11.0198
▁The	-11.0198
グラン	-11.0199
デッキ	-11.0199
以後	-11.0199
がないと	-11.02
性を	-11.0201
りします	-11.0202
▁毎日	-11.0208
を目指し	-11.0208
フラン	-11.0209
のおかげで	-11.021
q	-11.021
っか	-11.021
思っていた	-11.0211
送る	-11.0211
のデザイン	-11.0211
購入した	-11.0212
お買い物	-11.0213
ように思います	-11.0215
いらない	-11.0216
THE	-11.0216
の下に	-11.0216
代謝	-11.0222
の痛み	-11.0222
業者の	-11.0222
した上で	-11.0222
函館	-11.0223
になってる	-11.0224
の有無	-11.0226
使えない	-11.023
調節	-11.0232
同期	-11.0234
ki	-11.0234
こみ	-11.0238
当初は	-11.0238
ジェル	-11.0238
精度	-11.0239
該当	-11.024
昨年の	-11.024
を進め	-11.0241
食器	-11.0241
を確認する	-11.0242
の方から	-11.0243
複合	-11.0246
静かな	-11.0246
の歌	-11.0247
移植	-11.0249
違法	-11.0249
する際	-11.025
大量に	-11.025
んこ	-11.025
みつ	-11.0251
アロマ	-11.0253
を確保	-11.0253
にあたる	-11.0255
という気持ち	-11.0257
濃度	-11.0258
湧	-11.0258
で購入	-11.0263
るのも	-11.0264
るよ	-11.0265
右手	-11.0266
方が良い	-11.0266
バックアップ	-11.0266
▁海外	-11.0266
耐震	-11.0268
さっぱり	-11.0268
芝居	-11.0268
ッカ	-11.027
ピア	-11.0272
ンズ	-11.0278
一致	-11.0282
吸い	-11.0282
消防	-11.0283
シャー	-11.0284
入り口	-11.0284
いくと	-11.0285
タレント	-11.0286
が入り	-11.0289
巧	-11.0291
専	-11.0292
わたしの	-11.0292
コンサルタント	-11.0294
縮	-11.0294
岐阜県	-11.0295
の求人	-11.0295
家賃	-11.0297
振動	-11.0297
稼働	-11.0298
明日は	-11.0299
ul	-11.0299
るけど	-11.03
ひら	-11.0301
脚本	-11.0301
既存の	-11.0302
os	-11.0302
近所	-11.0308
が悪く	-11.0308
の悩み	-11.0308
出ている	-11.0308
作業を	-11.0309
駅で	-11.0311
ているので	-11.0311
外来	-11.0312
が入る	-11.0312
▁同じ	-11.0313
豊富	-11.0315
固め	-11.0315
てきて	-11.0318
開示	-11.032
受注	-11.0321
その後の	-11.0321
つくり	-11.0322
HA	-11.0322
ペーパー	-11.0322
随分	-11.0323
わる	-11.0324
炎症	-11.0325
餃子	-11.0325
広がり	-11.0325
充	-11.0325
スキ	-11.0326
右側	-11.0327
留め	-11.0328
が原因	-11.0328
蕎麦	-11.0328
アンプ	-11.033
下落	-11.0332
本書	-11.0334
招待	-11.0335
だけだ	-11.0335
実質	-11.0336
体験談	-11.0337
NTT	-11.0337
エレ	-11.0338
幹	-11.0338
されると	-11.034
の影響で	-11.0342
▁全国	-11.0344
に出演	-11.0345
はいつも	-11.0348
MB	-11.0348
木材	-11.035
融合	-11.0351
げん	-11.0352
徹	-11.0352
功	-11.0354
かける	-11.0354
に住む	-11.0354
を考えると	-11.0354
付ける	-11.0355
越し	-11.0355
外科	-11.0355
ご覧ください	-11.0355
我々は	-11.0356
の考え方	-11.0357
身長	-11.0359
グラフィック	-11.036
奥さん	-11.0361
かせて	-11.0362
焼肉	-11.0363
己	-11.0366
渡す	-11.0366
萌え	-11.0368
ひとつの	-11.0368
綱	-11.0368
会社は	-11.037
修行	-11.0371
数々の	-11.0373
指数	-11.0375
の上で	-11.0375
始まり	-11.0376
ニング	-11.0378
行かない	-11.0378
地の	-11.0378
推薦	-11.0379
一週間	-11.0379
レール	-11.0381
勝つ	-11.0381
ブー	-11.0381
新型コロナウイルス	-11.0381
澄	-11.0381
iPad	-11.0382
あげて	-11.0382
輝く	-11.0383
内容が	-11.0388
グループの	-11.0388
コメントを	-11.0389
ことができない	-11.0389
かれた	-11.0391
乗車	-11.0392
DI	-11.0394
和田	-11.0395
ライフスタイル	-11.0396
ジャック	-11.0399
になってしまいます	-11.0399
垣	-11.0401
争	-11.0401
懐	-11.0402
得る	-11.0402
声優	-11.0403
はしない	-11.0406
でしょうが	-11.0407
紫外線	-11.0408
薄く	-11.0409
京都市	-11.041
エース	-11.041
腰痛	-11.041
技術者	-11.0411
分から	-11.0412
密着	-11.0412
サンド	-11.0413
なぜなら	-11.0415
がなければ	-11.0417
工作	-11.0418
石油	-11.0419
ヤン	-11.042
技能	-11.0421
ていること	-11.0421
▁それでは	-11.0422
祝日	-11.0424
ir	-11.0427
預け	-11.0427
スラ	-11.0432
厳選	-11.0433
建物の	-11.0433
債務	-11.0433
各社	-11.0436
割合	-11.0438
プロの	-11.0438
寸	-11.0439
▁同	-11.044
開く	-11.0441
水が	-11.0441
お申し込み	-11.0441
貯金	-11.0442
残って	-11.0443
自作	-11.0444
ホントに	-11.0446
託	-11.045
選考	-11.0451
気になった	-11.0451
使わない	-11.0451
伝えて	-11.0451
もったいない	-11.0452
小野	-11.0452
丹	-11.0452
稼ぐ	-11.0454
詳細はこちら	-11.0455
考慮	-11.0455
行きます	-11.0455
PM	-11.0456
日より	-11.0456
誇り	-11.0457
じん	-11.0458
訪れた	-11.0458
もまた	-11.0459
頭の	-11.0459
スリー	-11.0462
レッ	-11.0464
電波	-11.0465
メールを	-11.0465
を体験	-11.0466
食感	-11.0466
言わ	-11.0466
専門学校	-11.0466
投資家	-11.0468
都会	-11.0468
で働く	-11.0469
ふる	-11.0471
の詳細	-11.0473
ですかね	-11.0474
率が	-11.0476
プー	-11.0477
君が	-11.0478
幼児	-11.0479
▁口コミ	-11.0479
するだけで	-11.048
op	-11.0482
触	-11.0484
ないでしょう	-11.0484
正規	-11.0485
スー	-11.0486
奇跡	-11.0487
愛情	-11.0488
行われ	-11.0489
あんた	-11.049
足の	-11.0491
ッキング	-11.0491
を増やす	-11.0493
フィン	-11.0494
を伝える	-11.0497
咲き	-11.0498
一旦	-11.0498
芸能	-11.0499
画像を	-11.0503
一般の	-11.0504
の量	-11.0504
充実した	-11.0505
落ち着いて	-11.0505
葬	-11.0505
SIM	-11.0505
あっさり	-11.0508
に感謝	-11.0509
北部	-11.051
パク	-11.0512
AV	-11.0512
セルフ	-11.0513
史上	-11.0514
禅	-11.0515
見えた	-11.052
することにより	-11.052
素直に	-11.0521
ミル	-11.0522
静かに	-11.0522
財務	-11.0522
カビ	-11.0523
に限らず	-11.0524
を購入する	-11.0524
溶	-11.0525
こんなこと	-11.0526
らく	-11.0526
おめでとう	-11.0527
次世代	-11.0527
執行	-11.0532
いいな	-11.0532
ふり	-11.0535
DO	-11.0536
内側	-11.054
言えない	-11.0541
だったのか	-11.0541
幼	-11.0543
フレ	-11.0543
広島県	-11.0544
電話で	-11.0544
ダイヤモンド	-11.0547
仕入れ	-11.0547
逆転	-11.0548
CC	-11.0548
るんだ	-11.0551
は同じ	-11.0551
もかなり	-11.0552
辻	-11.0553
お寺	-11.0553
祈り	-11.0554
市役所	-11.0554
NI	-11.0554
盛り上がり	-11.0557
政治家	-11.0557
得られる	-11.0559
祝い	-11.0559
あう	-11.056
笑って	-11.0563
クオリティ	-11.0563
燃	-11.0564
詰	-11.0565
赤字	-11.0565
言ってる	-11.0568
日本酒	-11.0573
行きました	-11.0573
会館	-11.0576
顔が	-11.0578
軍事	-11.058
忍	-11.0581
アウトドア	-11.0584
に強い	-11.0584
ずいぶん	-11.0585
なんですけど	-11.0586
傾	-11.0586
子供達	-11.0587
病院で	-11.0589
理事	-11.0591
しね	-11.0592
それでは	-11.0593
スイス	-11.0593
ドラム	-11.0593
年度の	-11.0594
あれは	-11.0595
楽しそう	-11.0598
犬の	-11.0598
現行	-11.0599
飼育	-11.06
まない	-11.0602
様式	-11.0605
調達	-11.0606
▁今は	-11.0607
考えている	-11.0609
レザー	-11.061
BI	-11.061
ずれ	-11.0612
達の	-11.0613
観戦	-11.0615
等は	-11.0616
まらない	-11.0618
しげ	-11.0621
最強	-11.0623
幅広く	-11.0626
にご	-11.0626
チキン	-11.0629
隙間	-11.0631
パイプ	-11.0631
出版社	-11.0631
を防ぐ	-11.0632
分かれ	-11.0633
なれば	-11.0633
笹	-11.0634
載せ	-11.0634
公務員	-11.0634
▁今年	-11.0637
継	-11.0637
二次	-11.064
アカ	-11.0642
叩き	-11.0643
と呼ぶ	-11.0643
The	-11.0646
っきり	-11.0646
研究室	-11.0652
気持ちで	-11.0652
cc	-11.0652
分泌	-11.0653
かさ	-11.0654
屋敷	-11.0656
誤解	-11.0656
下車	-11.0658
メガネ	-11.0658
周囲の	-11.0659
換え	-11.0661
施	-11.0667
銭	-11.0667
どうなる	-11.0667
ノリ	-11.0668
元の	-11.0668
の長さ	-11.0669
体育	-11.0669
始めました	-11.0669
ためにも	-11.0671
開け	-11.0672
借り入れ	-11.0673
ことにしました	-11.0673
たけ	-11.0674
焦	-11.0674
薬を	-11.0675
時も	-11.0676
挙	-11.0677
ウィン	-11.0677
あぁ	-11.0677
しなくても	-11.0679
低く	-11.0679
数十	-11.0679
ないです	-11.068
ゝ	-11.069
桂	-11.0692
飲み物	-11.0694
大量の	-11.0695
部に	-11.0697
中山	-11.0698
警	-11.0703
sa	-11.0703
診	-11.0706
喰	-11.0706
mg	-11.0706
歌い	-11.0707
ab	-11.0709
選べる	-11.0709
結果を	-11.0711
最終的に	-11.0712
目安	-11.0713
できるか	-11.0715
一面	-11.0716
予	-11.0717
する場合は	-11.072
と思うので	-11.072
の季節	-11.072
その場で	-11.0721
大規模	-11.0722
注意点	-11.0723
グラム	-11.0727
各国	-11.0727
下がって	-11.073
意外に	-11.0731
▁昨年	-11.0732
然と	-11.0732
物が	-11.0733
ないのですが	-11.0733
事業の	-11.0734
錦	-11.0734
日帰り	-11.0735
解放	-11.0735
本格	-11.0739
保守	-11.0741
インフラ	-11.0741
異なります	-11.0741
を押し	-11.0743
桑	-11.0744
迫力	-11.0744
歳で	-11.0744
粒子	-11.0745
マネー	-11.0746
金の	-11.0748
が多いので	-11.0748
乱れ	-11.0748
ばん	-11.0749
お客様が	-11.075
人生の	-11.0751
マガジン	-11.0752
言います	-11.0752
してしまいます	-11.0753
追求	-11.0753
花の	-11.0754
良くない	-11.0756
八幡	-11.0758
▁僕は	-11.0758
△	-11.0759
開いて	-11.076
景観	-11.0761
同様に	-11.0761
果て	-11.0762
する必要がある	-11.0762
風俗	-11.0764
群馬県	-11.0765
、“	-11.0766
ーい	-11.0767
柿	-11.0768
愛知	-11.0768
速い	-11.077
加えて	-11.077
ありませんでした	-11.0773
頂けます	-11.0774
ヘルプ	-11.0775
幾	-11.0775
無限	-11.0776
市内の	-11.0776
ni	-11.0777
ベー	-11.0778
やさしい	-11.0779
どこで	-11.0781
悠	-11.0781
といえる	-11.0783
VI	-11.0783
敷地	-11.0784
いませんでした	-11.0784
ディス	-11.0786
を見つけて	-11.0786
サイズの	-11.0787
ものではありません	-11.0789
国民の	-11.079
弦	-11.0794
初代	-11.0795
併用	-11.0797
言わない	-11.0797
薬剤	-11.0797
この間	-11.08
径	-11.0801
重さ	-11.0802
海老	-11.0804
乗せ	-11.0804
した時	-11.0807
本を	-11.0807
ru	-11.0809
ッキー	-11.0809
あわせて	-11.0811
▁そういう	-11.0812
なき	-11.0813
鋭	-11.0814
スコ	-11.0817
勘	-11.0817
グレード	-11.0818
だろうと	-11.082
公立	-11.0821
NY	-11.0822
寄って	-11.0825
昨今	-11.0826
しているのは	-11.0829
籠	-11.0829
交際	-11.083
は必要	-11.0833
危険な	-11.0834
この作品	-11.0835
嘉	-11.0835
唄	-11.0839
に戻って	-11.0839
ラボ	-11.084
ご来店	-11.084
ack	-11.0841
手がけ	-11.0842
返金	-11.0843
ぢ	-11.0843
判決	-11.0843
疑い	-11.0843
単価	-11.0844
方で	-11.0845
同士	-11.0846
東京の	-11.0847
をお願いします	-11.0848
年間の	-11.085
順に	-11.085
der	-11.0852
TS	-11.0853
おやつ	-11.0853
単純に	-11.0856
外に	-11.0858
の管理	-11.0858
直線	-11.0858
うちは	-11.0858
塁	-11.0859
売りたい	-11.0859
ーーー	-11.086
動画を	-11.086
伝わる	-11.0863
ゲル	-11.0864
課長	-11.0864
高知	-11.0866
楽しさ	-11.0867
ってのは	-11.0869
味方	-11.087
▁昨日は	-11.087
魅力的な	-11.0872
してくれました	-11.0873
何だか	-11.0874
見事に	-11.0875
れん	-11.0879
と言われている	-11.088
衆	-11.0883
を展開	-11.0883
探して	-11.0885
コク	-11.0885
立体	-11.0885
人権	-11.0886
ba	-11.0887
認知	-11.0888
トム	-11.089
にいた	-11.0891
so	-11.0891
のお客様	-11.0891
人間は	-11.0892
の価格	-11.0892
▁at	-11.0894
頬	-11.0896
風が	-11.0898
非常	-11.0901
並びに	-11.0901
▁赤	-11.0905
自衛隊	-11.0905
の感想	-11.0905
原理	-11.0907
していましたが	-11.0909
状の	-11.091
の強い	-11.0911
ライセンス	-11.0911
の取り組み	-11.0912
譲渡	-11.0915
に位置する	-11.0916
操	-11.0917
いいでしょう	-11.0918
幸福	-11.0921
▁そういえば	-11.0922
こんな感じ	-11.0922
さっそく	-11.0923
標	-11.0923
近づいて	-11.0923
なす	-11.0924
書かれている	-11.0926
シニア	-11.0926
こいつ	-11.0926
気候	-11.0928
の増加	-11.0928
春日	-11.0929
..	-11.093
名無しさん	-11.093
その分	-11.0931
スタンダード	-11.0931
おさ	-11.0931
眠り	-11.0933
コーン	-11.0934
データの	-11.0934
集落	-11.0935
以	-11.0935
令和	-11.0937
車検	-11.0939
にとっても	-11.0939
に掲載	-11.0939
ておく	-11.094
俺も	-11.094
をクリック	-11.0941
侵入	-11.0942
かれる	-11.0942
ゼル	-11.0943
状態に	-11.0944
詞	-11.0944
樹脂	-11.0944
道の駅	-11.0945
かって	-11.0947
恥	-11.095
くらいに	-11.095
蛇	-11.0951
威	-11.0954
られません	-11.0954
ファンド	-11.0955
を上げ	-11.0956
スルー	-11.0958
お悩み	-11.0959
兆	-11.0959
自殺	-11.0959
▁今年の	-11.0961
海外の	-11.0961
になってしまいました	-11.0962
分散	-11.0962
本物	-11.0964
浸	-11.0965
明日の	-11.0966
検出	-11.0967
は結構	-11.0968
響	-11.0968
辞典	-11.0968
なのかな	-11.097
Facebook	-11.0971
うえ	-11.0972
発音	-11.0974
ゅ	-11.0975
おきます	-11.0975
滋賀県	-11.0975
工務店	-11.0977
もいる	-11.0977
食欲	-11.0984
問題点	-11.0985
使いやすい	-11.0987
▁Pro	-11.0989
次々と	-11.0989
会った	-11.0991
復	-11.0997
代理店	-11.0997
位に	-11.0997
原因は	-11.0997
まさ	-11.0998
あー	-11.0999
集まり	-11.0999
つら	-11.1002
後期	-11.1003
満足度	-11.1004
クッキー	-11.1004
~」	-11.1009
沖縄県	-11.1009
不具合	-11.1009
ザン	-11.1009
ような気がする	-11.101
控除	-11.101
体系	-11.101
尺	-11.1012
稀	-11.1014
していたら	-11.1014
間で	-11.1015
レンジ	-11.1015
瓦	-11.1015
音を	-11.1017
合流	-11.1017
っく	-11.1018
んじゃないかな	-11.1019
是	-11.1023
折れ	-11.1023
の購入	-11.1024
致しました	-11.1025
情熱	-11.1026
する必要	-11.1027
気づき	-11.1027
青春	-11.1027
池袋	-11.103
落ちた	-11.1031
見逃	-11.1033
ねこ	-11.1034
おいしく	-11.1035
含	-11.1035
倒れ	-11.1035
残る	-11.1036
を公開	-11.1037
の組み合わせ	-11.1037
見ても	-11.1039
勿論	-11.1042
人でも	-11.1043
人々が	-11.1044
新着	-11.1045
と同様	-11.1046
フロ	-11.1046
ネック	-11.1047
さに	-11.1052
太平洋	-11.1052
部分の	-11.1053
ベランダ	-11.1053
シロ	-11.1055
だと思って	-11.1055
を下	-11.1057
されたもの	-11.1057
取り入れ	-11.1061
宣	-11.1061
添付	-11.1061
桁	-11.1061
悩んでいる	-11.1062
繋がり	-11.1062
のテーマ	-11.1063
合宿	-11.1065
就	-11.1066
姿が	-11.1069
同士の	-11.1071
と同様に	-11.1074
巨人	-11.1077
を出した	-11.108
している人	-11.1081
正月	-11.1082
全面	-11.1082
的なもの	-11.1083
する前に	-11.1087
駐車	-11.1087
お問い合わせください	-11.1087
あれこれ	-11.1088
戻って	-11.1088
戦で	-11.1088
ごとの	-11.1089
朝鮮	-11.109
エリ	-11.1091
丁	-11.1091
のあり方	-11.1092
が入った	-11.1092
ことば	-11.1094
di	-11.1095
リュー	-11.1097
述	-11.1098
この時	-11.1098
沢山の	-11.11
仕事は	-11.1101
帰りに	-11.1103
フォルダ	-11.1103
との事	-11.1107
が入っている	-11.1109
大陸	-11.1109
BO	-11.111
ニコ	-11.1111
受ける	-11.1111
クイズ	-11.1111
なければいけない	-11.1112
ですからね	-11.1112
る人	-11.1113
だったから	-11.1113
太鼓	-11.1116
後日	-11.1117
オランダ	-11.1117
お答え	-11.1117
費用は	-11.1117
見解	-11.1119
かせ	-11.112
始まる	-11.1122
添	-11.1122
おれ	-11.1123
福井	-11.1126
選んだ	-11.1128
くらいで	-11.1129
症状が	-11.1132
果物	-11.1132
▁それで	-11.1133
律	-11.1133
達は	-11.1137
マツ	-11.1139
明日から	-11.1142
▁あれ	-11.1142
▁俺は	-11.1143
を得た	-11.1148
相手を	-11.1148
に影響	-11.1148
勘違い	-11.1149
やき	-11.1151
組み立て	-11.1151
足元	-11.1152
セー	-11.1152
見られ	-11.1153
購読	-11.1157
の時期	-11.1158
ソフトバンク	-11.116
主役	-11.1163
タンパク質	-11.1166
この曲	-11.1167
ワンピース	-11.1168
量は	-11.1168
だろうが	-11.1173
件数	-11.1174
っぱなし	-11.1176
経って	-11.118
が少し	-11.1181
にまで	-11.1181
にしろ	-11.1181
税理士	-11.1182
左手	-11.1185
・・・・・・	-11.1189
クション	-11.1189
安定した	-11.1189
`	-11.119
を送る	-11.1191
頼む	-11.1191
そんな中	-11.1193
付き合い	-11.1195
悩んで	-11.1197
プリン	-11.1198
その点	-11.1198
分かり	-11.1201
みや	-11.1203
▁d	-11.1204
ようですね	-11.1204
に沿って	-11.1204
学術	-11.1204
救急	-11.1205
した結果	-11.1207
れます	-11.1209
適正	-11.1209
は無理	-11.121
不可欠	-11.121
目次	-11.1211
タイル	-11.1211
本物の	-11.1212
酔	-11.1212
國	-11.1213
捜査	-11.1213
ことにした	-11.1213
をつくり	-11.1215
未経験	-11.1215
刑事	-11.1215
(^^;	-11.1217
さく	-11.1217
歌って	-11.1219
専門の	-11.1219
子どもが	-11.122
なかったり	-11.1222
裸	-11.1224
レギュラー	-11.1225
ささ	-11.1225
言っている	-11.1227
さらには	-11.1228
支	-11.1229
していくこと	-11.1232
最新情報	-11.1234
のだけど	-11.1234
▁Co	-11.1234
揺れ	-11.1235
編集部	-11.1235
営業時間	-11.1235
つぶやき	-11.1236
したのが	-11.1236
著書	-11.1236
してくれて	-11.1236
SH	-11.1237
▁いま	-11.1237
CP	-11.1237
休業	-11.124
ない限り	-11.1241
CR	-11.1243
但し	-11.1244
炉	-11.1245
たしかに	-11.1247
有利	-11.1247
スプレー	-11.125
渡り	-11.125
となっており	-11.1252
ムラ	-11.1253
ip	-11.1254
水着	-11.1254
価格が	-11.1254
太田	-11.1255
魅力的	-11.1256
GM	-11.1256
共演	-11.1257
すればいい	-11.1257
にあって	-11.1257
丁寧な	-11.1258
ただの	-11.1259
日頃	-11.1259
理事長	-11.126
紅茶	-11.1262
怒	-11.1262
勢力	-11.1262
慢性	-11.1265
紹介した	-11.1266
LI	-11.1268
占	-11.1269
ub	-11.127
OP	-11.127
打って	-11.1271
おらず	-11.1271
▁画像	-11.1273
知れ	-11.1274
▁こういう	-11.1274
NS	-11.1274
の現状	-11.1277
ルド	-11.1279
に含まれる	-11.1279
がちな	-11.1279
宴会	-11.1279
の距離	-11.1281
殻	-11.1283
キュー	-11.1284
メーカーの	-11.1284
責任者	-11.1285
つた	-11.1285
特殊な	-11.129
結合	-11.1292
リアン	-11.1293
修復	-11.1293
しみ	-11.1294
ふれあい	-11.1295
も無い	-11.1297
と判断	-11.1297
考えられる	-11.1299
経験を	-11.1299
気をつけて	-11.1299
抜ける	-11.13
を繰り返し	-11.13
を置いて	-11.13
ぶっ	-11.1301
どころか	-11.1301
求め	-11.1304
屈	-11.1304
電動	-11.1305
宛	-11.1307
お考え	-11.1308
短縮	-11.1309
......。	-11.1309
いるのは	-11.1309
なんだよ	-11.1311
キャップ	-11.1311
プラザ	-11.1312
アフィリエイト	-11.1313
驚きました	-11.1315
串	-11.1316
住宅ローン	-11.1317
これにより	-11.1317
を超えた	-11.1318
朗	-11.1323
あるのか	-11.1323
結果的に	-11.1323
ことはできない	-11.1323
ドメイン	-11.1323
んですけどね	-11.1324
講演会	-11.1325
曲を	-11.1325
というふうに	-11.1325
乗り換え	-11.1327
CPU	-11.1328
中島	-11.1328
英語で	-11.1328
恥ずかし	-11.1329
su	-11.133
好きだ	-11.1333
感心	-11.1333
みち	-11.1333
住む	-11.1334
いませんか	-11.1339
以外で	-11.134
物は	-11.1342
ッコ	-11.1342
を覚え	-11.1342
go	-11.1343
へ戻る	-11.1346
▁昭和	-11.1346
][	-11.1346
誇	-11.1346
左側	-11.1347
法案	-11.1349
せめて	-11.1349
お送り	-11.135
一戸建て	-11.135
たって	-11.1351
コンピューター	-11.1353
が起こる	-11.1355
人生を	-11.1355
言葉が	-11.1357
金を	-11.1357
勧め	-11.1358
方向性	-11.1358
▁どんな	-11.1363
協定	-11.1366
投入	-11.1366
咲く	-11.1366
いいです	-11.1367
禁煙	-11.1368
ネル	-11.1368
プロデューサー	-11.1371
亡	-11.1374
はほぼ	-11.1374
あけ	-11.1374
小規模	-11.1374
が異なる	-11.1375
ものでした	-11.1377
岩手県	-11.1377
なんですよ	-11.1377
洗顔	-11.1378
起業	-11.1378
邸	-11.1379
握	-11.1379
これまでに	-11.1382
緒	-11.1383
▁よく	-11.1385
うな	-11.1386
発足	-11.1386
も可能	-11.1387
お米	-11.1388
フィルター	-11.1388
を作った	-11.1389
待つ	-11.1389
を参照	-11.139
紐	-11.139
存在する	-11.1391
ピース	-11.1392
体操	-11.1393
そうと	-11.1394
孔	-11.1394
桐	-11.1397
警戒	-11.1397
狩り	-11.1399
技術を	-11.1399
得た	-11.14
ものすごく	-11.1401
死に	-11.1403
スケ	-11.1405
捉え	-11.1405
発酵	-11.1405
署名	-11.1407
業者が	-11.1408
カーテン	-11.1409
ぐる	-11.141
bo	-11.1411
年まで	-11.1412
それにしても	-11.1413
をそのまま	-11.1414
茎	-11.1414
ご希望	-11.1417
戦う	-11.1418
りんご	-11.1419
怠	-11.142
形の	-11.1421
)/	-11.1422
RS	-11.1423
今日から	-11.1423
ホイール	-11.1423
真剣に	-11.1424
分間	-11.1424
行います	-11.1425
等が	-11.1425
シップ	-11.1425
象	-11.1427
ka	-11.1427
だったけど	-11.1428
PE	-11.1428
重要です	-11.1428
ity	-11.1435
ラッシュ	-11.1435
世界遺産	-11.1435
ちゅう	-11.1436
在籍	-11.1436
旭	-11.1437
温かい	-11.1438
残っている	-11.1439
亡くなった	-11.1441
が可能な	-11.1443
サイトを	-11.1446
なんですか	-11.1447
輝き	-11.1448
濡れ	-11.145
お手入れ	-11.1452
ことがない	-11.1452
カスタム	-11.1455
コンビ	-11.1457
の調査	-11.1459
容	-11.1459
が多いです	-11.146
二人で	-11.1461
稼ぎ	-11.1462
しているのか	-11.1462
落ちて	-11.1462
クラスの	-11.1462
と同	-11.1465
ers	-11.1469
なれ	-11.1472
土曜	-11.1472
情報サイト	-11.1472
在住	-11.1473
相撲	-11.1475
足が	-11.1476
の開催	-11.1477
が大好き	-11.1479
見かけ	-11.1479
んだろうな	-11.148
ジェット	-11.1481
条第	-11.1481
韓	-11.1481
珍	-11.1481
潜	-11.1482
飲	-11.1485
してみましょう	-11.1485
自然な	-11.1485
対話	-11.1489
社会の	-11.149
弟子	-11.1494
ヴァー	-11.1495
震災	-11.1495
が発生する	-11.1495
快適に	-11.1496
よな	-11.1497
と思うんです	-11.1498
正確な	-11.1498
同年	-11.1499
かかります	-11.15
人や	-11.15
ヵ月	-11.1503
ぜん	-11.1503
いただければ	-11.1503
前は	-11.1504
台の	-11.1505
わからん	-11.1505
通りの	-11.1507
告知	-11.1509
方法が	-11.151
を送って	-11.1513
戻る	-11.1515
説明する	-11.1515
アニ	-11.1517
喫煙	-11.1517
▁«	-11.1518
先で	-11.1518
ホテルの	-11.1518
最中	-11.1518
疲れた	-11.1518
発生する	-11.1519
いったい	-11.1519
さず	-11.1519
▁今年も	-11.1525
リース	-11.1529
策定	-11.1529
一般に	-11.153
雪が	-11.1532
宝石	-11.1535
てた	-11.1538
集会	-11.1539
すぎた	-11.154
最短	-11.154
ぴったり	-11.1541
筒	-11.1541
一品	-11.1541
~♪	-11.1542
ドコモ	-11.1543
美味	-11.1544
楽しめます	-11.1544
りません	-11.1545
効果的な	-11.1546
わせ	-11.1549
どこから	-11.1549
バブル	-11.1552
概	-11.1552
さぁ	-11.1552
適応	-11.1555
あわ	-11.1558
実際は	-11.1558
向いて	-11.1559
一発	-11.1559
のメリット	-11.1559
店に	-11.156
慣れて	-11.156
の発生	-11.1561
スル	-11.1561
日本一	-11.1562
推測	-11.1563
拳	-11.1563
院長	-11.1564
都心	-11.1564
釣れ	-11.1565
問題ない	-11.1565
いないので	-11.1566
の多くは	-11.1566
言葉で	-11.1566
シマ	-11.1567
発揮	-11.1568
冷や	-11.157
この記事	-11.1571
この場合	-11.1571
双方	-11.1572
あるもの	-11.1572
おきたい	-11.1572
通話	-11.1573
行こう	-11.1577
に直接	-11.1579
立った	-11.1579
其	-11.1579
ものであり	-11.1581
那	-11.1582
綴	-11.1584
を多く	-11.1585
おすすめです	-11.1587
は大きく	-11.1588
担保	-11.1588
哲	-11.1588
を使用し	-11.1589
昨夜	-11.159
ウチ	-11.1591
歯の	-11.1591
火災	-11.1594
央	-11.1594
生き物	-11.1594
うえで	-11.1595
を選んだ	-11.1596
儲け	-11.1596
ジェイ	-11.1597
学問	-11.1597
北陸	-11.1597
に努め	-11.1597
議長	-11.1601
現代の	-11.1604
を飲む	-11.1606
▁このページ	-11.1607
を参考に	-11.1609
同じように	-11.161
を買った	-11.1612
などから	-11.1613
io	-11.1615
男性が	-11.1616
猫の	-11.1619
清潔	-11.1619
点が	-11.1619
がおすすめです	-11.162
he	-11.162
お祭り	-11.1621
パチンコ	-11.1627
IE	-11.1628
先月	-11.1629
指名	-11.163
あげた	-11.1631
皆さんの	-11.1631
プレーヤー	-11.1632
改修	-11.1633
随時	-11.1633
sp	-11.1636
自然の	-11.1636
に注目	-11.1637
角度	-11.1637
甲斐	-11.1637
際は	-11.1637
帰った	-11.1638
da	-11.1638
定員	-11.1638
▁回答	-11.1639
▁人気	-11.1639
様が	-11.1641
の割合	-11.1642
ガリ	-11.1643
▁de	-11.1643
区域	-11.1644
man	-11.1646
ご参加	-11.1648
コーディネート	-11.1648
参戦	-11.1649
con	-11.1653
なかったら	-11.1655
売り上げ	-11.1656
屋外	-11.1656
高齢	-11.1657
きれない	-11.1659
をみて	-11.166
遺産	-11.166
動向	-11.1661
興味深い	-11.1662
キャン	-11.1664
ご理解	-11.1665
web	-11.1666
仮想通貨	-11.1667
酷	-11.1667
のご紹介	-11.1668
良いです	-11.167
抜けて	-11.1671
ほんの	-11.1671
最安値	-11.1671
反発	-11.1674
ライバル	-11.1675
客室	-11.1676
進歩	-11.1677
を集めて	-11.1677
垂	-11.1677
まいりました	-11.1678
後輩	-11.1678
は高い	-11.1678
地獄	-11.168
んど	-11.1682
縮小	-11.1682
噛み	-11.1683
ラッキー	-11.1683
刊	-11.1683
機能が	-11.1686
浅草	-11.1689
ドロ	-11.169
和食	-11.1691
高山	-11.1692
に取り組んで	-11.1692
ナノ	-11.1693
封	-11.1695
強力な	-11.1696
話し合い	-11.1697
ミネラル	-11.1697
にしたい	-11.1697
優秀な	-11.1698
とのことです	-11.1699
当院	-11.1699
躍	-11.1701
理想の	-11.1701
の記録	-11.1701
新車	-11.1702
絞り	-11.1703
過ごして	-11.1703
期間は	-11.1703
競	-11.1704
昨日は	-11.1705
効果を	-11.1706
ことや	-11.1708
日本でも	-11.1708
林道	-11.1708
ぽん	-11.1709
に従って	-11.1709
ポイントは	-11.171
マッ	-11.171
OR	-11.1711
いわ	-11.1715
学校で	-11.1715
卒業生	-11.1715
苑	-11.1716
もしかして	-11.1721
王国	-11.1722
届	-11.1722
と思える	-11.1726
面白く	-11.1726
会社を	-11.1726
磨き	-11.1728
現在では	-11.1728
お聞き	-11.1728
引き上げ	-11.1729
おる	-11.1729
マシ	-11.1731
お天気	-11.1731
を伝え	-11.1732
知られ	-11.1737
に記載	-11.1738
ものがある	-11.1738
所在地	-11.1741
に設置	-11.1742
さか	-11.1743
ストリート	-11.1744
タブ	-11.1746
ああああ	-11.1749
CT	-11.1752
になっていて	-11.1752
ることなく	-11.1754
注射	-11.1755
暖房	-11.1756
何で	-11.1759
周年記念	-11.1759
巨	-11.1762
世界中の	-11.1763
古典	-11.1766
▁森	-11.1768
に行こう	-11.177
わし	-11.177
吉野	-11.1771
∀	-11.1772
ハナ	-11.1772
いいか	-11.1772
来ない	-11.1774
があるため	-11.1777
時給	-11.1777
を起こす	-11.1777
を務める	-11.1779
双	-11.1779
男性の	-11.178
具体的には	-11.178
緑の	-11.178
FM	-11.1781
ワイド	-11.1782
れている	-11.1784
うーん	-11.1787
をすること	-11.1787
逃	-11.1788
こむ	-11.1788
補助金	-11.1789
つつある	-11.1789
気になって	-11.1791
区分	-11.1794
拾	-11.1795
アナログ	-11.1797
個体	-11.1799
英語の	-11.18
ほっと	-11.1801
なみ	-11.1801
クタ	-11.1804
できたら	-11.1804
貼り	-11.1804
出典	-11.1805
メガ	-11.1805
ゞ	-11.1806
が生まれ	-11.1807
橋本	-11.1807
スティック	-11.181
スケール	-11.1811
その後は	-11.1812
無効	-11.1815
仕方	-11.1816
に期待	-11.1817
迷い	-11.1817
濁	-11.1818
カシ	-11.1818
▁価格	-11.1818
ハッ	-11.1819
シンガポール	-11.1819
渡し	-11.182
暑	-11.1821
血圧	-11.1822
交代	-11.1823
ツボ	-11.1823
大地	-11.1824
新設	-11.1824
横浜市	-11.1825
時間がかかる	-11.1826
長男	-11.1826
ストック	-11.1828
ご要望	-11.1828
依存	-11.1828
プロデュース	-11.1829
土壌	-11.1829
成人	-11.1829
枚目	-11.183
以降の	-11.183
取り組んで	-11.1831
▁何か	-11.1832
数え	-11.1832
足りない	-11.1833
ラベル	-11.1833
したくない	-11.1834
掛けて	-11.1834
の各	-11.1836
松山	-11.1837
夜に	-11.1838
期間限定	-11.184
県民	-11.184
ac	-11.184
;)	-11.1841
バッ	-11.1841
外交	-11.1841
を感じて	-11.1841
をたくさん	-11.1842
しょうがない	-11.1842
ソーシャル	-11.1843
後も	-11.1843
ve	-11.1844
申し訳ない	-11.1844
必見	-11.1844
が来て	-11.1847
産の	-11.1847
彫刻	-11.1847
ボウ	-11.1848
怪しい	-11.1851
ラインナップ	-11.1851
駅周辺	-11.1853
世界を	-11.1855
目覚め	-11.1855
旬の	-11.1857
入居	-11.1857
西日本	-11.1857
再婚	-11.1857
始まった	-11.1857
超え	-11.1858
死んだ	-11.1858
お名前	-11.1859
意志	-11.186
贅沢	-11.186
オオ	-11.1861
もしも	-11.1864
特有の	-11.1865
を置く	-11.1866
商標	-11.1866
教えて下さい	-11.1866
場所を	-11.1866
いきましょう	-11.1866
例年	-11.1867
自分たち	-11.1868
仕立て	-11.1872
の提供	-11.1872
ci	-11.1873
柔らかい	-11.1873
調べた	-11.1873
街の	-11.1874
are	-11.1875
こともできます	-11.1875
増える	-11.1876
卒業後	-11.1877
を達成	-11.188
騒	-11.188
コマンド	-11.1881
自己破産	-11.1882
ハーフ	-11.1882
例外	-11.1883
集まって	-11.1883
ナル	-11.1885
気になります	-11.1886
規約	-11.1886
ご紹介します	-11.1887
ガソリン	-11.1888
倶楽部	-11.189
真似	-11.1892
タマ	-11.1894
買収	-11.1895
のプロ	-11.1896
エール	-11.1897
グロ	-11.1897
物理	-11.1897
▁こちらは	-11.1897
受け取り	-11.1899
披露	-11.1901
郵送	-11.1901
を知り	-11.1902
とされています	-11.1902
スキー場	-11.1904
とらえ	-11.1904
お疲れ様でした	-11.1906
降りて	-11.1907
を続ける	-11.1908
登って	-11.1908
の絵	-11.1908
量の	-11.1909
に大きな	-11.1909
be	-11.1909
成田	-11.1909
日前	-11.1913
標高	-11.1915
はありますが	-11.1916
開拓	-11.1916
実務	-11.1917
pa	-11.1919
するよう	-11.192
の目的	-11.1921
という思い	-11.1921
ソウ	-11.1921
IA	-11.1922
黄金	-11.1923
HDD	-11.1924
ギリギリ	-11.1924
を聞く	-11.1925
可能性が高い	-11.1926
ミュゼ	-11.1926
が楽しめる	-11.1927
販売店	-11.193
間違え	-11.1931
▁あとは	-11.1932
側から	-11.1933
司会	-11.1933
誘	-11.1934
どこかで	-11.1937
EU	-11.1938
拍手	-11.1938
メタ	-11.1939
を打ち	-11.1945
数多くの	-11.1946
研究開発	-11.1947
はありませんでした	-11.1947
を決め	-11.1949
今年度	-11.1949
ぐらいの	-11.1952
医院	-11.1952
境内	-11.1952
スライド	-11.1956
することによって	-11.1957
の方の	-11.1957
しまえば	-11.1958
をもっと	-11.1958
全身脱毛	-11.1961
確	-11.1962
傍	-11.1962
支出	-11.1963
中国語	-11.1963
の判断	-11.1963
ないよ	-11.1964
消えて	-11.1965
全体を	-11.1965
らす	-11.1966
アーカイブ	-11.1967
▁スーパー	-11.1967
かのように	-11.1967
補正	-11.1968
アフター	-11.197
▁e	-11.1972
聖書	-11.1973
朱	-11.1973
刈	-11.1977
果実	-11.1977
大野	-11.1977
ボル	-11.1978
だろうな	-11.1978
セリフ	-11.1979
は難しい	-11.198
手配	-11.198
ではないので	-11.198
一人ひとり	-11.198
DC	-11.1982
演じる	-11.1984
ルト	-11.1985
何となく	-11.1985
減り	-11.1985
ガイドライン	-11.1987
藤原	-11.1987
業界の	-11.1988
分かりません	-11.1989
お手	-11.199
といわれ	-11.199
代わり	-11.1993
いますので	-11.1995
構え	-11.1996
してもらえる	-11.1997
堅	-11.1997
に入ると	-11.1997
レベルで	-11.1997
ヴァン	-11.1998
外で	-11.1998
容易	-11.1999
おん	-11.2
僕ら	-11.2
を抑える	-11.2001
救	-11.2001
が取れ	-11.2001
インク	-11.2002
次第に	-11.2004
son	-11.2005
地方の	-11.2006
▁□	-11.2007
代表的な	-11.2009
無かった	-11.201
イド	-11.201
中部	-11.201
感じが	-11.201
マリア	-11.2011
を設置	-11.2012
さらなる	-11.2012
おまえ	-11.2013
しっとり	-11.2013
みたいだ	-11.2013
▁昨日の	-11.2019
重ね	-11.202
ダイニング	-11.202
争い	-11.2023
査定額	-11.2024
を見つけた	-11.2024
場合でも	-11.2024
に手を	-11.2025
移籍	-11.2025
車内	-11.2025
順番	-11.2029
を開く	-11.203
を持っています	-11.2031
を使っている	-11.2031
すすめ	-11.2033
サイトに	-11.2037
ご使用	-11.2038
この前	-11.2038
編み	-11.2039
それだけで	-11.2039
定める	-11.204
スリ	-11.2041
生まれて	-11.2043
オススメです	-11.2043
見込み	-11.2043
環	-11.2044
三郎	-11.2045
時間で	-11.2046
▼	-11.2047
▁ああ	-11.2047
を書き	-11.2047
で最も	-11.2048
楽天市場	-11.2048
ロープ	-11.2049
なしに	-11.2049
を考えている	-11.2049
▁沖縄	-11.2049
確かめ	-11.2049
眼鏡	-11.2049
柔らかく	-11.2051
お互いに	-11.2052
マジック	-11.2052
急いで	-11.2053
髪の	-11.2053
まくって	-11.2054
嘆	-11.2054
すけ	-11.2057
取れ	-11.2058
フジ	-11.2058
恐らく	-11.2059
〜〜	-11.2059
の葉	-11.206
忌	-11.206
の作り方	-11.2061
が豊富	-11.2061
ムシ	-11.2062
ホンダ	-11.2063
をご覧	-11.2064
検索結果	-11.2066
おけば	-11.2067
使えます	-11.2067
講習	-11.2067
を結ぶ	-11.2068
を感じた	-11.2069
・・・(	-11.2069
Blog	-11.207
圧縮	-11.2071
やりとり	-11.2072
▁Windows	-11.2073
ひどく	-11.2073
ことが出来ます	-11.2074
レジャー	-11.2075
諸国	-11.2077
日本代表	-11.2078
TR	-11.208
ないため	-11.2081
に応じた	-11.2082
放射線	-11.2083
ふう	-11.2083
日光	-11.2084
大事に	-11.2086
スペ	-11.2086
視覚	-11.2087
フェイス	-11.2089
〜」	-11.209
開発した	-11.209
の最新	-11.2091
でもいい	-11.2093
面白かった	-11.2093
程度で	-11.2093
強さ	-11.2095
なくてはならない	-11.2096
なってしまう	-11.2097
いいよ	-11.2098
既存	-11.2098
OB	-11.2099
属性	-11.2099
転載	-11.21
マネ	-11.21
みませんか	-11.2101
になってから	-11.2102
いい感じ	-11.2102
見られます	-11.2105
をクリックすると	-11.2107
ウェ	-11.2108
側が	-11.2108
中央区	-11.211
えー	-11.2111
飛ぶ	-11.2111
描いた	-11.2111
重点	-11.2111
に取り組む	-11.2112
商品が	-11.2113
急な	-11.2113
焼け	-11.2115
に比べると	-11.2116
青山	-11.2117
クラフト	-11.2117
目指	-11.2118
地位	-11.2119
いたが	-11.2119
申込み	-11.2122
毎に	-11.2122
ピックアップ	-11.2124
のお仕事	-11.2124
ドクター	-11.2126
個々の	-11.2126
飛ば	-11.213
くださる	-11.2131
さし	-11.2131
が見え	-11.2131
ところから	-11.2134
プライバシー	-11.2134
目的で	-11.2135
課税	-11.2135
軽量	-11.2137
描く	-11.2139
と感じました	-11.2139
量を	-11.2141
ウッド	-11.2142
してみよう	-11.2143
故郷	-11.2146
カワ	-11.2148
に行くと	-11.2149
高速道路	-11.2149
ままに	-11.2152
ポイントを	-11.2152
ant	-11.2153
ことが大切です	-11.2153
じゃなかった	-11.2157
▁―	-11.2158
と感じた	-11.2158
はやはり	-11.2158
元気な	-11.2158
ことである	-11.2159
実用	-11.216
本格的に	-11.216
東洋	-11.2161
の壁	-11.2162
Sh	-11.2163
登場した	-11.2165
▁最近は	-11.2165
描写	-11.2166
の試合	-11.2168
速報	-11.2171
ご相談ください	-11.2172
商店	-11.2173
って言って	-11.2175
口を	-11.2175
細菌	-11.2176
交通事故	-11.2176
のとおり	-11.2178
育ち	-11.2178
してもらった	-11.2179
▁メンズ	-11.2179
排	-11.2179
世話	-11.2179
引き出し	-11.218
出口	-11.2183
の実施	-11.2183
そのために	-11.2184
バス停	-11.2185
ないで	-11.2185
ついつい	-11.2185
ずら	-11.2185
燃え	-11.2185
コメ	-11.2185
経由	-11.2186
月下旬	-11.2187
レイアウト	-11.2188
いちばん	-11.2189
の話題	-11.2189
こちらで	-11.219
微妙な	-11.2191
物流	-11.2192
だということ	-11.2192
告白	-11.2193
母の	-11.2194
及	-11.2195
三浦	-11.2195
求められる	-11.2197
しないように	-11.2199
お支払い	-11.2199
返り	-11.22
乙	-11.2201
身の	-11.2201
タカ	-11.2202
すご	-11.2205
たとき	-11.2206
ましたよ	-11.2206
どうする	-11.2207
ca	-11.2208
法令	-11.2209
チリ	-11.2209
ポーズ	-11.221
であるため	-11.2211
あいさつ	-11.2211
塗	-11.2212
▁St	-11.2212
料金は	-11.2215
Mo	-11.2218
俳句	-11.2218
艶	-11.2219
見つけ	-11.222
地帯	-11.222
不便	-11.2221
部署	-11.2221
きたので	-11.2222
いいね	-11.2222
の症状	-11.2223
私立	-11.2224
抜	-11.2225
を呼び	-11.2225
ネーム	-11.2226
図書	-11.2227
▁́	-11.2228
上場	-11.2229
の風景	-11.2229
受け止め	-11.2229
といえます	-11.2234
佐々木	-11.2234
を入れた	-11.2235
利息	-11.2235
を上げて	-11.2236
▁みんなの	-11.2237
数年前	-11.2239
そうなので	-11.224
兵衛	-11.224
起きた	-11.2241
開幕	-11.2242
来店	-11.2243
耐久性	-11.2243
出された	-11.2243
出来て	-11.2244
シェフ	-11.2245
髪を	-11.2245
遣	-11.2246
悪魔	-11.2247
の立場	-11.2248
かぶ	-11.2249
吐	-11.2249
▁ここは	-11.2249
our	-11.2252
登記	-11.2253
渡る	-11.2254
が中心	-11.2257
忘れた	-11.2257
メッセージを	-11.2258
を披露	-11.2258
木造	-11.2259
待っている	-11.2259
親戚	-11.226
SU	-11.226
合わせる	-11.226
▁h	-11.2262
ント	-11.2263
の頃	-11.2263
SM	-11.2264
貞	-11.2264
良さそう	-11.2264
呼びかけ	-11.2265
▁はい	-11.2267
訂正	-11.2267
高校の	-11.2268
いろ	-11.2268
福井県	-11.2271
を見つめ	-11.2272
幸いです	-11.2273
つめ	-11.2273
を込めて	-11.2273
偉	-11.2274
を決めて	-11.2275
類似	-11.2275
ないだろう	-11.2278
その人	-11.2278
幹部	-11.2279
でしたら	-11.2279
されません	-11.2279
ベット	-11.228
小川	-11.2281
役者	-11.2282
あふれ	-11.2283
軟	-11.2283
働いている	-11.2284
たいです	-11.2284
GW	-11.2285
師匠	-11.2285
タイミングで	-11.2285
ラフ	-11.2286
が最も	-11.2286
デジカメ	-11.2286
の活用	-11.2287
名誉	-11.2293
存在感	-11.2294
このため	-11.2294
還元	-11.2295
仮想	-11.2295
書かれて	-11.2295
▁なんで	-11.2296
加熱	-11.2296
ウォッチ	-11.2296
物事	-11.2298
やすさ	-11.2299
をします	-11.23
アップル	-11.2301
言われ	-11.2303
が上がる	-11.2303
工法	-11.2304
経験者	-11.2305
でないと	-11.2307
言い方	-11.2308
指揮	-11.2308
自分たちの	-11.2308
シミュレーション	-11.2311
投与	-11.2311
選手は	-11.2311
▁Z	-11.2311
っき	-11.2313
されてしまう	-11.2313
載	-11.2314
状態です	-11.2314
いちご	-11.2315
So	-11.2316
情報提供	-11.2316
るよう	-11.2317
車は	-11.2318
ゆったり	-11.2318
な雰囲気	-11.232
ツイート	-11.2321
twitter	-11.2321
万円の	-11.2323
に対しては	-11.2324
ダル	-11.2324
調べる	-11.2326
の設置	-11.2327
お伺い	-11.2328
セミ	-11.2328
をいただきました	-11.2328
云	-11.2329
そういえば	-11.233
しかありません	-11.233
ジュニア	-11.2331
メタル	-11.2331
MT	-11.2333
側は	-11.2333
art	-11.2335
‐	-11.2339
おも	-11.234
を含めて	-11.234
でありながら	-11.2341
包み	-11.2352
ネギ	-11.2353
ite	-11.2353
の更新	-11.2355
嬢	-11.2357
武田	-11.2358
ヒーロー	-11.2358
将軍	-11.236
外側	-11.2361
純正	-11.2361
選手権	-11.2361
を減らす	-11.2363
oo	-11.2367
だなぁ	-11.2367
規模の	-11.2368
虹	-11.237
たちに	-11.237
見事	-11.2371
購入する	-11.2372
和歌山	-11.2373
デスク	-11.2373
運び	-11.2373
フィリピン	-11.2376
その場	-11.2377
増え	-11.2377
ダーク	-11.2379
くじ	-11.2379
▁+	-11.2379
に移動	-11.238
見積り	-11.2381
装飾	-11.2382
実態	-11.2385
の下で	-11.2386
って事	-11.2387
されてきた	-11.2387
に残る	-11.2388
欲しかった	-11.2388
BE	-11.2389
フー	-11.239
出せ	-11.239
ベテラン	-11.2391
ステンレス	-11.2391
トレー	-11.2392
ブーツ	-11.2393
対抗	-11.2393
れません	-11.2393
を実感	-11.2394
混合	-11.2397
後から	-11.2397
付きの	-11.2399
の方で	-11.24
クン	-11.2402
箱根	-11.2402
もうちょっと	-11.2403
消毒	-11.2403
パッ	-11.2404
浦和	-11.2405
条約	-11.2405
壁に	-11.2407
をベースに	-11.2408
*)	-11.2409
方が多い	-11.241
An	-11.241
顔の	-11.2411
も良く	-11.2413
していたので	-11.2415
進路	-11.2415
全額	-11.2416
容易に	-11.2416
記念日	-11.2416
治療法	-11.2417
pe	-11.2419
でなければ	-11.242
登る	-11.242
タップ	-11.2422
スムーズ	-11.2424
誰かが	-11.2424
恐ろしい	-11.2425
br	-11.2425
▁カテゴリー	-11.2425
ウイ	-11.2426
芯	-11.2429
▁Web	-11.243
今や	-11.243
山崎	-11.2431
▁In	-11.2433
首都	-11.2435
生え	-11.2435
心理学	-11.2436
していただく	-11.2437
戒	-11.2438
肌が	-11.2439
災	-11.244
わが	-11.2442
アドバイザー	-11.2442
彼に	-11.2443
はあります	-11.2446
ことなど	-11.2446
リンパ	-11.2448
を表す	-11.245
去年の	-11.245
コーデ	-11.245
叶	-11.2452
難易度	-11.2454
鹿児島県	-11.2455
僧	-11.2455
インプラント	-11.2455
マンションの	-11.2457
消滅	-11.2459
ォ	-11.246
泣いて	-11.246
圧倒的に	-11.2461
預金	-11.2462
転送	-11.2462
連盟	-11.2462
夫の	-11.2464
トランス	-11.2464
化し	-11.2464
大宮	-11.2465
笑う	-11.2465
優秀	-11.2467
洞	-11.2467
蝶	-11.2467
活性	-11.2468
その中でも	-11.2468
市販	-11.2469
のせい	-11.2469
身体の	-11.247
年末年始	-11.2471
を立ち上げ	-11.2472
ダイビング	-11.2472
をしっかりと	-11.2472
刑	-11.2475
クルー	-11.2477
卓	-11.2478
郵便局	-11.2478
あわせ	-11.2478
何度	-11.2479
脱毛サロン	-11.2483
GT	-11.2484
結晶	-11.2487
リサーチ	-11.2488
をしない	-11.249
を教えてください	-11.249
買え	-11.249
鈍	-11.249
信じ	-11.2491
平野	-11.2491
みどり	-11.2493
観て	-11.2493
バナナ	-11.2496
けば	-11.2496
化して	-11.2497
期待して	-11.2498
制定	-11.2498
ひな	-11.25
するとともに	-11.2501
据え	-11.2503
店員	-11.2503
気象	-11.2504
最終日	-11.2504
が多数	-11.2506
クリーン	-11.2507
選ばれた	-11.2507
はありませんが	-11.2508
ick	-11.2508
選んで	-11.2509
いじめ	-11.251
釈	-11.251
キリスト教	-11.2511
いいと思います	-11.2513
でしたので	-11.2514
摩	-11.2515
▁Ch	-11.2516
フラット	-11.2517
ってくれる	-11.2517
海外で	-11.2517
のある方	-11.2518
飲料	-11.2519
を搭載	-11.252
パウダー	-11.252
めちゃくちゃ	-11.252
いながら	-11.2521
を選び	-11.2521
ページへ	-11.2522
体温	-11.2522
お会い	-11.2523
発明	-11.2524
▁このブログを	-11.2524
ましい	-11.2525
飲食	-11.2525
出ない	-11.2526
テク	-11.2528
現れた	-11.2529
劇団	-11.2529
が終わって	-11.253
多彩な	-11.2531
厚生労働省	-11.2532
家が	-11.2532
衝突	-11.2534
掛かり	-11.2534
匿名	-11.2535
私と	-11.2536
まれる	-11.254
観光地	-11.2541
が来た	-11.2542
セント	-11.2542
逸	-11.2544
ギア	-11.2545
が付いて	-11.2545
示す	-11.2546
開店	-11.2547
YO	-11.2548
▁昔	-11.2549
ライス	-11.2549
名義	-11.2551
スリム	-11.2554
モチベーション	-11.2554
甘く	-11.2555
▁明日は	-11.2555
衛星	-11.2558
復旧	-11.256
マリン	-11.256
例え	-11.256
に集中	-11.2561
を代表する	-11.2561
キャベツ	-11.2562
と違う	-11.2564
はコチラ	-11.2566
貼って	-11.2566
ti	-11.2566
一層	-11.2567
つもりで	-11.2568
の重要性	-11.2569
おしゃれな	-11.257
建築物	-11.2571
スタジアム	-11.2571
▁↓	-11.2574
送付	-11.2574
の発展	-11.2574
)』	-11.2574
感じました	-11.2576
数年	-11.2579
検診	-11.2583
視野	-11.2583
いつの間にか	-11.2584
に浸	-11.2584
の少ない	-11.2585
訪	-11.2586
易	-11.2587
全体に	-11.2591
内閣	-11.2594
病院の	-11.2595
も高い	-11.2595
ストレッチ	-11.2596
頂	-11.2596
海洋	-11.2597
呉	-11.2598
のみなさん	-11.2599
岡田	-11.2599
完備	-11.2599
届いて	-11.26
食事を	-11.2601
ベリー	-11.2602
お付き合い	-11.2605
暮	-11.2607
と思うけど	-11.2607
憎	-11.2607
ディーラー	-11.2611
FF	-11.2611
雇	-11.2613
CG	-11.2615
衛	-11.2615
凍	-11.2616
年代の	-11.2618
皆様に	-11.2618
過剰	-11.2619
はできません	-11.262
処置	-11.2622
集め	-11.2623
有効な	-11.2624
認	-11.2624
石川県	-11.2624
月中旬	-11.2625
関与	-11.2625
聞こえ	-11.2626
FA	-11.2627
ご連絡ください	-11.2628
お肉	-11.263
子会社	-11.2631
ウォーキング	-11.2633
家は	-11.2634
かなあ	-11.2634
シュート	-11.2636
てくれます	-11.2636
ウエスト	-11.2636
ほとんどが	-11.2638
両手	-11.264
動物園	-11.2641
PL	-11.2641
丁度	-11.2644
ウォーター	-11.2645
どこでも	-11.2648
ブラシ	-11.2648
KI	-11.2649
チュー	-11.2651
少しだけ	-11.2651
に所属	-11.2655
貯	-11.2656
スロー	-11.2656
を認め	-11.2656
しているため	-11.2657
和風	-11.2657
経済的	-11.2661
キャッチ	-11.2661
上手に	-11.2661
を選択する	-11.2662
届き	-11.2662
半ば	-11.2664
多摩	-11.2665
溢れる	-11.2665
山形県	-11.2666
をやる	-11.2666
ないという	-11.2667
コーティング	-11.2668
息を	-11.2669
当日は	-11.2671
の両方	-11.2672
認可	-11.2672
水槽	-11.2673
再建	-11.2673
が存在する	-11.2675
内蔵	-11.2675
▁←	-11.2676
トーン	-11.2676
腫瘍	-11.2677
万が一	-11.2679
現時点で	-11.2679
で開催	-11.2679
代替	-11.2681
派の	-11.2684
いる人	-11.2685
をはじめとする	-11.2686
牧場	-11.2688
ランニング	-11.2688
CE	-11.2689
を付けて	-11.2691
総務	-11.2694
をご利用	-11.2695
お世話	-11.2696
の確保	-11.2697
かせる	-11.2699
なのだが	-11.2699
調和	-11.27
ギー	-11.2704
▁名古屋	-11.2704
その辺	-11.2705
頭の中	-11.2708
の舞台	-11.2709
を描く	-11.271
土木	-11.271
が多くて	-11.2711
▁はじめまして	-11.2712
美容室	-11.2713
かったです	-11.2713
訪れ	-11.2716
独身	-11.2717
高度な	-11.2717
っぷり	-11.2717
ダイレクト	-11.2717
セールス	-11.2719
を学び	-11.2719
どり	-11.272
パール	-11.272
遮	-11.2722
これまた	-11.2723
お任せ	-11.2723
もしっかり	-11.2726
近畿	-11.2726
一人の	-11.2726
思え	-11.2727
▁レディース	-11.2728
いらっしゃいます	-11.2728
エム	-11.2728
ならぬ	-11.2728
したものです	-11.2729
ものがあります	-11.2729
で行う	-11.273
▁韓国	-11.273
きゃ	-11.273
の日記	-11.2731
両立	-11.2732
表彰	-11.2732
連れて	-11.2732
揚	-11.2734
創設	-11.2735
どうした	-11.2735
を解説	-11.2736
テンプレート	-11.2736
不調	-11.2736
リボン	-11.2738
の悪い	-11.274
斎	-11.274
キム	-11.274
ガール	-11.2741
先生方	-11.2742
▁PC	-11.2744
愚	-11.2748
観る	-11.2749
▁プライバシーポリシー	-11.275
買いました	-11.275
▁これまで	-11.275
ご主人	-11.2752
西武	-11.2752
▽	-11.2752
BR	-11.2752
▁それとも	-11.2753
▁n	-11.2754
を設け	-11.2754
FAX	-11.2755
次第で	-11.2756
氏名	-11.2757
イノベーション	-11.276
糞	-11.276
発表会	-11.2762
他の人	-11.2763
間隔	-11.2763
を振り	-11.2763
取組	-11.2765
父の	-11.2767
出血	-11.2767
資	-11.2769
他人の	-11.277
に関連する	-11.2772
そうか	-11.2773
何時	-11.2773
そうすると	-11.2774
に戻	-11.2778
便秘	-11.2778
てます	-11.2779
いえば	-11.2779
アコム	-11.278
誰にも	-11.278
熊本県	-11.2782
男は	-11.2783
ice	-11.2784
笛	-11.2784
就活	-11.2786
顧問	-11.2786
どうにか	-11.2786
働き方	-11.2786
にもなる	-11.2787
久しぶりの	-11.2788
腕時計	-11.2789
費用が	-11.279
のおすすめ	-11.2791
危険性	-11.2794
イライラ	-11.2795
天下	-11.2795
割と	-11.2796
海外旅行	-11.2797
で有名な	-11.2798
取り上げられ	-11.2798
稿	-11.2798
が起き	-11.2798
贈り物	-11.2799
期間が	-11.2801
が始まった	-11.2802
いたい	-11.2803
されたり	-11.2804
奈良県	-11.2804
も可能です	-11.2804
DM	-11.2805
機材	-11.2805
武蔵	-11.2807
密度	-11.2807
に注意	-11.2807
学生時代	-11.2808
使い勝手	-11.2808
これらは	-11.2811
界の	-11.2811
ニッ	-11.2811
が出てきた	-11.2812
皆さんに	-11.2816
肥料	-11.2816
不幸	-11.2816
食生活	-11.2817
くだ	-11.2818
が流れ	-11.2818
勉強会	-11.2819
その理由	-11.282
破損	-11.282
安全に	-11.282
点数	-11.2822
症例	-11.2822
ことになりました	-11.2823
青森県	-11.2824
歯科医院	-11.2824
分かりやすく	-11.2825
®	-11.2826
ヘル	-11.2826
安心です	-11.2826
斜面	-11.2827
ace	-11.2828
この人	-11.2828
改築	-11.283
開花	-11.283
るだけ	-11.2831
亮	-11.2832
描いて	-11.2834
ような感じ	-11.2835
だったのに	-11.2835
スポ	-11.2836
の製造	-11.2836
世界観	-11.2838
していますので	-11.2839
すい	-11.284
通し	-11.284
と考えられる	-11.2841
利点	-11.2841
にわたり	-11.2843
養成	-11.2843
くろ	-11.2847
シリーズの	-11.2847
はすでに	-11.2849
浴室	-11.2851
を浴び	-11.2851
やらない	-11.2853
免	-11.2854
od	-11.2855
乗る	-11.2855
栃木県	-11.2855
言いたい	-11.2856
ものですが	-11.2856
三人	-11.2856
をまとめて	-11.2856
湘南	-11.2857
薬剤師の	-11.2857
みたいですね	-11.2857
待機	-11.2863
をテーマに	-11.2865
納豆	-11.2866
しら	-11.2869
が出ている	-11.2869
ってくる	-11.2872
原材料	-11.2877
に向け	-11.2877
大丈夫です	-11.2879
しにくい	-11.288
ハラ	-11.2881
為替	-11.2882
リーズナブル	-11.2882
悩む	-11.2883
を心がけ	-11.2883
ツリー	-11.2884
を調べる	-11.2884
▁うちの	-11.2886
ことになり	-11.2886
ゆかり	-11.2887
変形	-11.2888
かえって	-11.2888
を元に	-11.2889
通学	-11.289
EV	-11.2891
対面	-11.2892
したりする	-11.2893
ステーキ	-11.2893
イト	-11.2894
混ぜ	-11.2896
を強く	-11.2897
両者	-11.2897
尊敬	-11.2897
利用可能	-11.2897
クレジット	-11.2898
相応	-11.2899
部下	-11.29
高値	-11.29
つる	-11.2901
時頃	-11.2903
大好きです	-11.2904
刊行	-11.2904
気に入った	-11.2906
ass	-11.2906
この商品	-11.2907
美肌	-11.2908
足場	-11.2908
小泉	-11.2908
一番の	-11.2909
ark	-11.2909
軍の	-11.291
すか	-11.2911
包装	-11.2911
往	-11.2911
階の	-11.2912
天才	-11.2912
これって	-11.2913
こちらから	-11.2913
守り	-11.2914
と考えます	-11.2915
の再	-11.2915
カスタマイズ	-11.2917
碑	-11.2919
可能性は	-11.292
を含めた	-11.292
ホスト	-11.2921
と思っております	-11.2921
加盟	-11.2922
ニョ	-11.2924
の平均	-11.2925
互	-11.2927
見たら	-11.2928
よっ	-11.2928
の普及	-11.2931
の構造	-11.2931
いませんが	-11.2931
決める	-11.2932
ちゃいます	-11.2935
▁愛知県	-11.2936
お値段	-11.2936
配当	-11.2938
対策を	-11.2938
またまた	-11.2938
といわれています	-11.2939
専攻	-11.294
通じ	-11.294
公的	-11.2941
コロナ禍	-11.2941
ヘン	-11.2942
北区	-11.2945
車に	-11.2945
チャンピオン	-11.2947
と同じく	-11.2947
ツイッター	-11.2952
織り	-11.2953
これからは	-11.2954
ブログで	-11.2954
識	-11.2956
おりません	-11.2956
ようなこと	-11.2957
JavaScript	-11.2957
方へ	-11.296
リンク集	-11.2961
が行われる	-11.2961
どろ	-11.2963
が増えた	-11.2963
斗	-11.2964
ていません	-11.2965
SF	-11.2965
通行	-11.2966
CI	-11.2967
等々	-11.2969
者として	-11.297
かからない	-11.2973
確実	-11.2975
通報	-11.2975
ルイ	-11.2976
映画の	-11.2976
こんで	-11.2978
ピザ	-11.2981
算出	-11.2982
審議	-11.2983
きています	-11.2983
刈り	-11.2984
届いた	-11.2988
通った	-11.2988
歌舞伎	-11.2989
撮影した	-11.2989
壮	-11.299
を示した	-11.2991
▁きっと	-11.2991
お家	-11.2992
甘さ	-11.2992
があまり	-11.2993
竿	-11.2994
ズム	-11.2994
声で	-11.2995
手元に	-11.2995
いくこと	-11.2996
アマ	-11.2996
を超え	-11.2998
件の	-11.3
を満喫	-11.3001
辞め	-11.3002
の働き	-11.3004
方法です	-11.3006
友達と	-11.3006
村上	-11.3007
我々の	-11.3007
慎重に	-11.3009
してい	-11.3009
帰ってきた	-11.3011
可能性が	-11.3013
適当に	-11.3015
もあれば	-11.3016
ノイズ	-11.3016
地名	-11.3017
シンポジウム	-11.3022
も含め	-11.3022
がわ	-11.3024
とは何か	-11.3026
わけではなく	-11.3027
患者の	-11.3027
連絡先	-11.3027
立ち上げ	-11.3027
なっ	-11.3028
めく	-11.3029
遅れて	-11.3029
することができ	-11.3029
が分かる	-11.3031
身を	-11.3031
を設立	-11.3033
どうでもいい	-11.3034
かぁ	-11.3038
ことが多く	-11.3038
スマ	-11.304
全体が	-11.304
の仕組み	-11.3041
男が	-11.3041
にも対応	-11.3042
小児	-11.3043
VR	-11.3044
ATM	-11.3045
判明	-11.3046
米国の	-11.3047
予告	-11.3047
構	-11.3048
まっている	-11.3049
頼り	-11.305
お正月	-11.305
指輪	-11.3051
文化財	-11.3051
何よりも	-11.3052
などについて	-11.3052
鬱	-11.3053
坂本	-11.3054
くなり	-11.3055
とは思えない	-11.3056
していなかった	-11.3056
カール	-11.3057
埋	-11.306
趣旨	-11.306
感激	-11.3061
しまっている	-11.3062
東西	-11.3063
年後	-11.3064
tion	-11.3064
しばしば	-11.3065
集客	-11.3065
。*	-11.307
タケ	-11.307
えます	-11.307
消し	-11.3071
多くの人が	-11.3071
浄化	-11.3071
紹介する	-11.3071
と比べると	-11.3072
困難な	-11.3074
出展	-11.3075
液体	-11.3076
orz	-11.3077
したという	-11.3077
UI	-11.3079
の充実	-11.3079
tr	-11.3079
同様の	-11.3084
クリエイティブ	-11.3089
大抵	-11.3089
語って	-11.3092
浴	-11.3096
政府の	-11.3098
国内外	-11.3098
アクア	-11.3098
とすれば	-11.3101
の範囲	-11.3102
知ら	-11.3103
河原	-11.3104
を実現する	-11.3106
を待つ	-11.3106
炊	-11.3106
を決めた	-11.3106
買い取り	-11.3106
セラ	-11.3107
リュ	-11.311
トルコ	-11.311
やっていた	-11.3111
ゆり	-11.3111
奥様	-11.3114
の表示	-11.3114
ちび	-11.3115
ティン	-11.3117
絆	-11.3117
結果として	-11.3118
TH	-11.3118
になるのか	-11.3119
西部	-11.312
通称	-11.3121
京都の	-11.3122
予備	-11.3125
お願いいたします	-11.3126
付き合って	-11.3128
箸	-11.3129
生産性	-11.3129
を加え	-11.313
申し訳ありません	-11.313
分岐	-11.3132
軌道	-11.3132
vs	-11.3133
をつけた	-11.3134
きつい	-11.3136
形に	-11.3136
梅田	-11.3137
頑張る	-11.3141
解明	-11.3141
製造業	-11.3144
はっきりと	-11.3144
役に立つ	-11.3145
個人的な	-11.3147
を活用した	-11.3148
生活に	-11.3153
紹介します	-11.3153
国連	-11.3153
メイド	-11.3154
▁トラックバック	-11.3156
要するに	-11.3156
山梨県	-11.3158
病院に	-11.3159
扇	-11.3159
って思って	-11.316
で見た	-11.316
藍	-11.3165
iz	-11.3165
くない	-11.3166
ちゅ	-11.3166
お店で	-11.3168
給付	-11.3169
クセ	-11.3169
で約	-11.317
トラベル	-11.3171
加減	-11.3174
発掘	-11.3174
えっ	-11.3174
チョウ	-11.3175
てしまって	-11.3177
美しさ	-11.3178
延期	-11.3179
お楽しみ	-11.318
会って	-11.318
この世	-11.3182
地区の	-11.3182
いるか	-11.3183
燃焼	-11.3183
自宅に	-11.3184
海軍	-11.3184
腺	-11.3188
で行われた	-11.3188
特長	-11.3189
名で	-11.3189
◇	-11.3189
感性	-11.319
ゼミ	-11.319
米軍	-11.3191
一人一人	-11.3194
高品質	-11.3194
ベア	-11.3194
株主	-11.3194
ないような	-11.3196
られなかった	-11.3197
げる	-11.3199
自分でも	-11.3201
啓	-11.3201
ディレクター	-11.3201
フェスティバル	-11.3201
単純	-11.3202
なってきた	-11.3202
情勢	-11.3202
無料の	-11.3203
試して	-11.3203
拭	-11.3203
Ro	-11.3207
連動	-11.3209
に就任	-11.3209
形式で	-11.321
高松	-11.321
アジ	-11.3211
翌年	-11.3211
オーガニック	-11.3213
僅か	-11.3213
深さ	-11.3214
たりして	-11.3214
発表された	-11.3215
ネー	-11.3215
未だ	-11.3216
ちら	-11.3218
文献	-11.3218
がまだ	-11.3218
新年	-11.3219
行っています	-11.322
東急	-11.3221
フレンチ	-11.3221
伝わって	-11.3223
言える	-11.3224
聞きました	-11.3225
セックス	-11.3225
の一人	-11.3226
関連記事	-11.3227
宿泊施設	-11.3227
接種	-11.3227
出てきて	-11.3228
オリジナルの	-11.3228
駆除	-11.3229
ディナー	-11.323
されているので	-11.3231
篇	-11.3233
エラ	-11.3233
飲み会	-11.3234
青空	-11.3234
▁それと	-11.3235
テイ	-11.3235
するとき	-11.3236
いままで	-11.3237
カッコ	-11.3237
知られている	-11.3237
納め	-11.3238
が全く	-11.3239
縛	-11.324
ダイヤ	-11.324
空いて	-11.3242
ないと思います	-11.3242
ING	-11.3243
してある	-11.3244
ake	-11.3245
もうひとつ	-11.3246
いくつも	-11.3246
撮	-11.3247
貨物	-11.3248
おきましょう	-11.3248
女王	-11.3248
オペラ	-11.3249
の選び方	-11.3251
TI	-11.3251
癒	-11.3252
であったり	-11.3252
リと	-11.3254
依	-11.3256
保全	-11.3256
GP	-11.3256
出かける	-11.3258
残念な	-11.3259
いかん	-11.3259
を表示する	-11.3261
どうしよう	-11.3261
韓国の	-11.3262
日本国内	-11.3263
手入れ	-11.3264
アニメーション	-11.3264
の負担	-11.3266
賛成	-11.3266
に関する情報	-11.3266
RC	-11.3266
たいという	-11.3272
増えて	-11.3273
後ろに	-11.3275
pi	-11.3276
提供する	-11.3277
ことができません	-11.3278
ことのない	-11.3281
によるもの	-11.3281
満点	-11.3281
況	-11.3282
それ以上	-11.3282
シカ	-11.3282
思っています	-11.3282
祀	-11.3283
ではありませんが	-11.3283
参拝	-11.3285
関わり	-11.3287
を紹介する	-11.3289
揃い	-11.329
百貨店	-11.329
慎	-11.3292
の他に	-11.3292
読める	-11.3292
化粧水	-11.3293
したいです	-11.3293
ラグ	-11.3294
あなたも	-11.3295
ボケ	-11.3295
そっち	-11.3295
悟	-11.3296
に住んで	-11.3296
が重要	-11.3298
お好み	-11.33
大学で	-11.33
順調に	-11.3301
当事者	-11.3301
本音	-11.3302
トリートメント	-11.3302
お願い致します	-11.3303
らずに	-11.3303
浄	-11.3303
チル	-11.3304
選出	-11.3304
ニット	-11.3305
など様々な	-11.3306
優れ	-11.3307
の娘	-11.3307
を担う	-11.3308
も充実	-11.3308
インターネットで	-11.3309
ポリシー	-11.3309
port	-11.3311
岡山県	-11.3312
遥	-11.3312
リーフ	-11.3312
アクティブ	-11.3314
ゆとり	-11.3314
載せて	-11.3315
工具	-11.3316
取扱い	-11.3316
お肌	-11.3318
好みの	-11.3319
前期	-11.332
体育館	-11.3322
ペイ	-11.3326
よろ	-11.3326
柴	-11.3326
イヤー	-11.3326
コラーゲン	-11.3327
を問わず	-11.333
▁上記	-11.3332
徳島	-11.3332
潰	-11.3333
出かけ	-11.3333
スイ	-11.3333
全体で	-11.3333
再発	-11.3333
たつ	-11.3335
まれた	-11.3335
長岡	-11.3336
ネタバレ	-11.3337
付与	-11.3339
われて	-11.3339
総理	-11.3341
創立	-11.3341
▁ところが	-11.3342
防御	-11.3343
><	-11.3343
やってくる	-11.3345
源泉	-11.3345
一括査定	-11.3348
がわからない	-11.3348
スポンサー	-11.3349
ループ	-11.3349
すず	-11.335
駅から徒歩	-11.3351
しようか	-11.3351
防犯	-11.3352
受けた	-11.3354
止まり	-11.3354
撮った	-11.3355
気に入って	-11.3356
お待ちしております	-11.3357
ことが多いです	-11.3358
頃には	-11.3359
のライブ	-11.3359
んでしょうね	-11.3359
✨	-11.3361
▁お気に入り	-11.3365
民主	-11.3368
マクロ	-11.3369
ひっ	-11.337
メーター	-11.337
を語る	-11.3371
気づいて	-11.3371
指導者	-11.3373
との出会い	-11.3373
だったか	-11.3373
Pa	-11.3373
腫	-11.3374
済ませ	-11.3376
を務め	-11.3376
ようにして	-11.3378
を忘れ	-11.3379
レディース	-11.3381
の情報を	-11.3381
インドネシア	-11.3381
修了	-11.3382
暖かく	-11.3382
色合い	-11.3383
かれて	-11.3384
ぐり	-11.3384
いますか	-11.3385
五十	-11.3386
の相場	-11.3388
廃棄物	-11.3389
を利用し	-11.3389
通る	-11.3391
が行われた	-11.3391
お客様から	-11.3392
するべき	-11.3395
マッチング	-11.3395
ばり	-11.3395
ya	-11.3399
来ている	-11.3399
と比較して	-11.34
小倉	-11.34
怪	-11.34
チョイス	-11.3401
デスクトップ	-11.3401
いるようです	-11.3402
患者様	-11.3402
エージェント	-11.3404
ソル	-11.3406
ケル	-11.3406
ix	-11.3408
〜♪	-11.3409
栄養素	-11.341
あそこ	-11.3411
住んでいる	-11.3412
の見直し	-11.3413
それこそ	-11.3414
cl	-11.3414
モチーフ	-11.3416
役立つ	-11.3417
▁Ma	-11.3419
甲子園	-11.3419
われわれ	-11.3419
ユニークな	-11.3421
パンフレット	-11.3421
ピング	-11.3421
シンボル	-11.3422
みん	-11.3423
壁紙	-11.3424
EE	-11.3425
脈	-11.3425
最終的には	-11.3426
フレーズ	-11.3426
私を	-11.3426
ぐら	-11.3427
磁	-11.3427
山口県	-11.3428
おにぎり	-11.3428
分くらい	-11.343
の推進	-11.3431
したのか	-11.3431
ist	-11.3433
っていうのは	-11.3434
ペースで	-11.3434
環境で	-11.3435
下取り	-11.3437
歴史的	-11.3438
徴収	-11.3439
パーセント	-11.3439
が出来て	-11.3442
▁実際	-11.3442
フォーク	-11.3442
オブジェクト	-11.3443
はるかに	-11.3444
ニュ	-11.3445
一冊	-11.3446
お迎え	-11.3446
姓	-11.3448
ばかりです	-11.3448
貸切	-11.3449
ご依頼	-11.345
大規模な	-11.3451
アンダー	-11.3451
のサポート	-11.3453
憧れ	-11.3454
ないのです	-11.3456
模型	-11.3459
おうち	-11.3459
みそ	-11.3459
参入	-11.3461
三十	-11.3462
序	-11.3464
週刊	-11.3464
支障	-11.3466
学生の	-11.3469
言及	-11.3469
ケット	-11.3469
を加えて	-11.347
▁サイトマップ	-11.347
すま	-11.347
の撮影	-11.3472
輩	-11.3474
就任	-11.3474
野生	-11.3475
年より	-11.3477
確かな	-11.3478
キリスト	-11.3479
鷹	-11.3479
淡	-11.348
哉	-11.348
それ以外	-11.3481
になっていました	-11.3481
鉱	-11.3482
繰り	-11.3483
対立	-11.3484
るようになった	-11.3484
阿部	-11.3484
うさぎ	-11.3486
をサポート	-11.3487
灰	-11.3488
ただいま	-11.349
レオ	-11.349
セブン	-11.349
ISO	-11.3491
▁このページの	-11.3491
カードを	-11.3493
行える	-11.3494
振込	-11.3495
プロモーション	-11.3497
ジュエリー	-11.3498
男性は	-11.3499
トコ	-11.3499
ピッチ	-11.3499
政府は	-11.3499
一流	-11.35
さんへ	-11.3501
交わ	-11.3502
ムービー	-11.3502
▁横浜	-11.3503
宮城	-11.3506
献	-11.3506
する機会	-11.3506
定食	-11.3507
万円以上	-11.3507
年間で	-11.3509
霞	-11.3509
様は	-11.351
省略	-11.3511
子供の頃	-11.3511
ようなもの	-11.3511
楽しみにして	-11.3511
驚く	-11.3512
泣	-11.3514
送迎	-11.3514
しておきましょう	-11.3514
忙しく	-11.3514
屋根の	-11.3516
んだり	-11.3517
製品を	-11.3517
良好	-11.3517
記者会見	-11.3518
蒼	-11.3518
椎	-11.3518
ウィンドウ	-11.3518
監督の	-11.3521
古くから	-11.3521
バリエーション	-11.3522
媒体	-11.3525
エクス	-11.3527
鯛	-11.3529
親の	-11.3531
完結	-11.3532
を飲んで	-11.3533
似ている	-11.3534
銀行の	-11.3535
コメントを書く	-11.3535
連邦	-11.3535
シング	-11.3536
透	-11.3537
ねじ	-11.3539
人たちは	-11.3541
道場	-11.3542
欲しく	-11.3542
を備え	-11.3544
併せて	-11.3545
欠け	-11.3545
効率化	-11.3545
見ました	-11.3546
インナー	-11.3548
異性	-11.3549
撮る	-11.3549
おまかせ	-11.355
▁De	-11.3554
稼げる	-11.3554
とは思う	-11.3555
打ち上げ	-11.3555
蒸気	-11.3555
個の	-11.3556
の幅	-11.3558
呂	-11.3558
海上	-11.3558
申し上げ	-11.3558
なってしまった	-11.3564
鴨	-11.3564
古く	-11.3565
にアクセス	-11.3566
とく	-11.3568
行動を	-11.3568
者数	-11.3569
内定	-11.357
▁All	-11.357
梱包	-11.3573
はまったく	-11.3574
神社の	-11.3574
話を聞いて	-11.3574
が一般的	-11.3576
▁x	-11.3577
を出て	-11.3579
ウェディング	-11.358
ありましたが	-11.3585
を受けている	-11.3585
ブン	-11.3585
それなりの	-11.3587
キック	-11.3587
その際	-11.3588
の秘密	-11.3588
盛岡	-11.3589
毎日の	-11.359
ってしまいました	-11.3591
起きる	-11.3591
見せる	-11.3594
露出	-11.3594
おばあちゃん	-11.3599
ツーリング	-11.36
読め	-11.36
名様	-11.3601
いれ	-11.3601
は決して	-11.3603
住居	-11.3604
枯れ	-11.3604
んだね	-11.3604
答える	-11.3604
一連の	-11.3605
運ぶ	-11.3607
MV	-11.3609
におい	-11.3609
サビ	-11.3609
本日の	-11.361
零	-11.3611
手掛け	-11.3611
ございました	-11.3611
くなります	-11.3612
みたいなもの	-11.3613
グー	-11.3615
▁というわけで	-11.3616
なんでしょうか	-11.3617
散ら	-11.3619
フィギュア	-11.3619
全日本	-11.3619
がかかって	-11.362
わたしたち	-11.3621
アホ	-11.3622
ギリシャ	-11.3622
大島	-11.3623
良いと思います	-11.3623
パチ	-11.3623
臼	-11.3624
VA	-11.3624
お薦め	-11.3624
できるのか	-11.3625
利便性	-11.3625
補給	-11.3625
が完成	-11.3626
格差	-11.3629
良いでしょう	-11.363
のですから	-11.3631
返して	-11.3631
よぉ	-11.3633
の予約	-11.3633
ズレ	-11.3635
唱	-11.3636
述べた	-11.3636
セカンド	-11.3637
が続いて	-11.3638
ーちゃん	-11.3638
有る	-11.364
タラ	-11.3643
とうとう	-11.3644
を更新	-11.3644
鐘	-11.3644
NE	-11.3645
何かを	-11.3646
SHI	-11.3647
あま	-11.3647
▁re	-11.3647
ラウンジ	-11.3648
に違いない	-11.3649
まったり	-11.365
会社概要	-11.365
通院	-11.3651
るところ	-11.3651
損傷	-11.3652
から探す	-11.3653
ive	-11.3653
掛かる	-11.3654
費用を	-11.3656
車種	-11.3657
使わ	-11.3657
娘の	-11.3659
べきか	-11.3661
勧誘	-11.3661
わた	-11.3662
を描いた	-11.3662
市街地	-11.3663
様々	-11.3664
クリップ	-11.3664
mp	-11.3665
KA	-11.3665
芸人	-11.3666
されております	-11.3667
を考えた	-11.3667
斜め	-11.3667
を堪能	-11.3668
フジテレビ	-11.3669
危ない	-11.3669
年ぶり	-11.3672
を望む	-11.3673
足り	-11.3674
聴く	-11.3674
が足りない	-11.3677
あると思います	-11.3677
好きな人	-11.368
しておきます	-11.3681
奪われ	-11.3682
みかん	-11.3683
世界中	-11.3684
だろうし	-11.3684
三角	-11.3687
犯人	-11.3689
進める	-11.3689
モル	-11.3691
はならない	-11.3693
ご希望の	-11.3695
トゥー	-11.3697
人もいます	-11.3698
を作成する	-11.3698
推定	-11.3698
決まった	-11.3698
事です	-11.3698
を読んだ	-11.3701
制服	-11.3701
PV	-11.3702
見てる	-11.3702
阪	-11.3702
円以上	-11.3705
頂上	-11.3706
権限	-11.3706
我が国	-11.3706
ヒロイン	-11.3706
をお願い	-11.3706
クター	-11.3707
語学	-11.3708
歩いた	-11.3709
使用される	-11.3709
▁こちらの	-11.371
に合う	-11.371
承	-11.3712
方も多い	-11.3712
気づか	-11.3713
権力	-11.3713
見れる	-11.3713
チューブ	-11.3714
ハイブリッド	-11.3714
塊	-11.3715
チェンジ	-11.3716
と指摘	-11.3716
美味しかった	-11.3717
侍	-11.3717
にすると	-11.3718
を重ねて	-11.3718
の報告	-11.3718
墨	-11.3721
単位で	-11.3722
タレ	-11.3722
孤独	-11.3723
の出来事	-11.3724
国内で	-11.3724
近くで	-11.3725
つくば	-11.3726
ネックレス	-11.3726
尾根	-11.3728
ミズ	-11.3729
神宮	-11.373
を使えば	-11.3733
小学校の	-11.3733
ストラップ	-11.3733
頑張ります	-11.3734
現場の	-11.3734
任意整理	-11.3738
が必要だ	-11.3739
くると	-11.374
シャッター	-11.3741
ビットコイン	-11.3743
徹底的に	-11.3744
を考慮	-11.3745
火山	-11.3748
リハビリ	-11.3748
通路	-11.3748
早め	-11.3749
フェリー	-11.3751
定額	-11.3751
症候群	-11.3753
廊下	-11.3753
そうだった	-11.3755
ブレイク	-11.3756
瑞	-11.3757
シリコン	-11.3757
詠	-11.3757
再会	-11.3757
適合	-11.3764
家族で	-11.3765
ANA	-11.3765
久しぶり	-11.3766
を重ね	-11.3767
喧嘩	-11.3767
ボーイ	-11.3767
DX	-11.3767
裂	-11.3768
会い	-11.377
守備	-11.3771
しやすく	-11.3773
トップページ	-11.3774
承知	-11.3774
キラキラ	-11.3775
ページに	-11.3776
を知った	-11.3776
ou	-11.3776
同盟	-11.3776
縄	-11.3777
参加した	-11.3779
繁殖	-11.378
三重	-11.378
の実現	-11.378
還	-11.3781
認め	-11.3781
日本海	-11.3781
狼	-11.3784
Sp	-11.3784
捨てる	-11.3785
味付け	-11.3787
が終わる	-11.3788
に行きたい	-11.3789
メキシコ	-11.3791
(=	-11.3792
ありまして	-11.3793
ミュ	-11.3794
堪能	-11.3795
首都圏	-11.3796
低価格	-11.3796
ろく	-11.3797
ゾン	-11.3799
突っ	-11.3799
ではあるが	-11.3803
明確	-11.3804
プロ野球	-11.3805
line	-11.3805
オイ	-11.3805
高田	-11.3806
の責任	-11.3806
OT	-11.3806
バスで	-11.3806
わけですから	-11.3808
オープニング	-11.3808
次回は	-11.381
yo	-11.381
モジュール	-11.3812
トリー	-11.3813
締結	-11.3813
伝統的な	-11.3815
写真集	-11.3815
こんばんは	-11.3816
邪	-11.3817
が進む	-11.3817
彼らが	-11.3818
効果的	-11.3819
アッ	-11.382
展覧会	-11.382
嬉しく	-11.382
に戻り	-11.382
ライヴ	-11.3821
伯	-11.3825
▁楽天	-11.3825
ポンプ	-11.3825
同行	-11.3826
になっており	-11.3827
カウント	-11.3827
窯	-11.3827
山下	-11.3827
居た	-11.3828
譜	-11.3828
ワキガ	-11.3829
ーっと	-11.3829
TBS	-11.3829
神話	-11.383
を聞いた	-11.3831
太陽光発電	-11.3831
似たような	-11.3832
--	-11.3832
秋田県	-11.3832
来月	-11.3833
出雲	-11.3833
待た	-11.3833
を動かす	-11.3834
開いた	-11.3834
シルエット	-11.3835
パッド	-11.3836
ゐ	-11.3836
圭	-11.3837
はいない	-11.3838
陶	-11.3839
主要な	-11.384
ますし	-11.384
買える	-11.3841
bu	-11.3841
常時	-11.3841
いるのですが	-11.3845
が変わって	-11.3845
会津	-11.3846
妊婦	-11.3846
うら	-11.3846
上田	-11.3847
遣い	-11.3847
前田	-11.3848
アメリカン	-11.3848
南北	-11.3849
すん	-11.3849
あか	-11.3849
フィル	-11.385
座り	-11.3852
尽く	-11.3853
複	-11.3854
の運営	-11.3855
名刺	-11.3856
メンタル	-11.3857
名無し	-11.3859
選ばれ	-11.3859
すべ	-11.386
地理	-11.386
ありますよね	-11.386
を残す	-11.3861
お二人	-11.3862
膳	-11.3863
取締役	-11.3863
バグ	-11.3865
を守り	-11.3865
の解説	-11.3867
業務を	-11.3869
似た	-11.387
分ける	-11.3871
比べ	-11.3871
ーション	-11.3871
卸	-11.3871
豊かに	-11.3871
スタンプ	-11.3873
記号	-11.3873
▁いよいよ	-11.3875
残りの	-11.3875
生息	-11.3876
はいつ	-11.3878
に触れ	-11.3878
音源	-11.3878
市川	-11.3879
生まれる	-11.388
満開	-11.3881
パッチ	-11.3882
の指導	-11.3883
を記録	-11.3883
大切です	-11.3884
の成果	-11.3884
かよ	-11.3884
チームが	-11.3886
相手は	-11.3886
頁	-11.3886
広げ	-11.3887
即日融資	-11.3887
はありますか	-11.3888
来日	-11.3889
野菜の	-11.3889
言っても	-11.389
補強	-11.389
開催される	-11.3891
わい	-11.3892
欠かせない	-11.3893
田村	-11.3894
▁iPhone	-11.3897
この辺	-11.3898
▁今の	-11.3899
廻	-11.3899
職場の	-11.3899
個人情報の	-11.3899
回戦	-11.3899
DJ	-11.39
授	-11.39
ウソ	-11.3901
ide	-11.3901
信州	-11.3901
永久	-11.3901
お食事	-11.3901
♪♪	-11.3904
という意味で	-11.3904
に至る	-11.3904
人目	-11.3904
を扱う	-11.3906
独占	-11.3906
そのあと	-11.3906
を着て	-11.3907
の声が	-11.3907
川町	-11.3907
咲いて	-11.3907
発売された	-11.3908
祖母	-11.3909
最先端	-11.391
李	-11.3911
解け	-11.3914
アミノ酸	-11.3915
▁投稿日	-11.3916
告	-11.3916
座席	-11.392
をお持ち	-11.3921
if	-11.3922
イタリアン	-11.3922
助成	-11.3924
▁たとえば	-11.3925
佐賀	-11.3925
学んだ	-11.3926
に触れる	-11.3926
泣く	-11.3927
岬	-11.3927
を送り	-11.3927
IR	-11.393
淳	-11.393
感覚で	-11.3931
並べ	-11.3931
走った	-11.3934
性の高い	-11.3934
日数	-11.3934
聞きます	-11.3935
を起こし	-11.3936
革新	-11.3938
▁これからも	-11.3938
していれば	-11.3938
になるため	-11.3938
緑色	-11.3939
エサ	-11.394
Go	-11.394
罰	-11.394
祖父	-11.394
少数	-11.3941
答	-11.3942
を依頼	-11.3942
設	-11.3942
とされている	-11.3945
カメ	-11.3946
駆	-11.3946
HI	-11.3947
▁まだまだ	-11.3947
調味料	-11.3948
返還	-11.3948
烈	-11.3949
思われ	-11.3949
水戸	-11.3952
スタンス	-11.3952
エク	-11.3952
フラッシュ	-11.3953
そのほか	-11.3953
暴力	-11.3955
蟹	-11.3957
みても	-11.3957
克	-11.3958
をやっている	-11.3958
を連れて	-11.3959
掘り	-11.3959
というものは	-11.3961
ドッグ	-11.3961
調剤薬局	-11.3961
La	-11.3961
shi	-11.3962
財団	-11.3963
愛犬	-11.3963
天神	-11.3964
未だに	-11.3964
査	-11.3968
書いている	-11.3969
ろい	-11.3969
ランナー	-11.397
こなす	-11.397
が好きで	-11.397
半導体	-11.3971
認められる	-11.3971
そら	-11.3972
In	-11.3972
しちゃう	-11.3975
ヒロ	-11.3975
リンゴ	-11.398
アクセント	-11.3981
東日本	-11.3985
出資	-11.3985
ゆー	-11.3987
ご了承ください	-11.3988
篠	-11.3989
一つ一つ	-11.3992
月まで	-11.3993
継承	-11.3993
はあった	-11.3993
股	-11.3994
CBD	-11.3994
してきて	-11.3995
した方が	-11.3996
苦しみ	-11.3997
進展	-11.3998
への対応	-11.3999
改定	-11.3999
ターミナル	-11.4002
待	-11.4002
▁やっぱ	-11.4002
;;	-11.4003
取れない	-11.4003
所有者	-11.4004
惑星	-11.4006
前まで	-11.4007
やすくなる	-11.4008
従って	-11.4008
就職活動	-11.4009
が集まって	-11.4009
友だち	-11.401
私にとって	-11.4011
とは言え	-11.4011
のなか	-11.4012
展示会	-11.4013
TEL	-11.4013
後者	-11.4014
ほかにも	-11.4014
出演者	-11.4014
ボイス	-11.4015
行われている	-11.4016
努力を	-11.4016
外から	-11.4016
洗う	-11.4017
▁ID	-11.4017
今更	-11.4019
一度も	-11.4023
提言	-11.4023
のリスク	-11.4024
曇り	-11.4024
コリ	-11.4024
をご用意	-11.4024
兆円	-11.4026
実況	-11.4027
ピク	-11.4028
正義	-11.4028
に関する研究	-11.4029
購入しました	-11.4029
歌を	-11.403
なったら	-11.4031
下地	-11.4032
求	-11.4033
DIY	-11.4033
はずの	-11.4034
文明	-11.4037
を書いた	-11.4038
に当たる	-11.4039
ドール	-11.4041
を感じます	-11.4042
たまには	-11.4042
おしゃべり	-11.4044
ありますか	-11.4044
する予定	-11.4044
いまいち	-11.4044
和歌山県	-11.4045
突破	-11.4045
このスレ	-11.4046
との連携	-11.4046
名前が	-11.4047
俗	-11.4049
ってことで	-11.405
っており	-11.4054
EA	-11.4055
無断	-11.4055
お盆	-11.4056
農園	-11.4058
ギュ	-11.4058
お住まい	-11.4059
うつ病	-11.4061
に設定	-11.4062
周波数	-11.4063
BOX	-11.4066
HTML	-11.4066
おかず	-11.4066
ダニ	-11.407
兵庫	-11.407
フランスの	-11.4073
るほど	-11.4074
と思ってた	-11.4074
コンクール	-11.4074
つなが	-11.4076
つながる	-11.4077
迷って	-11.4077
人たちの	-11.4078
酒造	-11.4083
気づく	-11.4083
ヨシ	-11.4084
に位置し	-11.4084
白く	-11.4085
その前に	-11.4085
友達に	-11.4086
いい加減	-11.4088
互いに	-11.4088
懸	-11.4088
は多い	-11.4088
をお伝え	-11.4089
しゃべ	-11.4091
III	-11.4093
馴染み	-11.4093
に至るまで	-11.4095
咳	-11.4095
名所	-11.4099
トラン	-11.41
してもらい	-11.4101
大満足	-11.4101
トランプ	-11.4102
新聞社	-11.4103
は常に	-11.4104
売上高	-11.4107
みたり	-11.4107
と思いますよ	-11.4107
なかったのですが	-11.4107
を優先	-11.4108
下さいね	-11.4108
ec	-11.4111
酷い	-11.4112
してもらって	-11.4112
奉	-11.4112
警告	-11.4113
ごう	-11.4114
込んでいる	-11.4114
頑張れ	-11.4116
▁本日の	-11.4116
ユース	-11.4119
するほど	-11.4121
の様子を	-11.4121
ance	-11.4121
握り	-11.4122
石鹸	-11.4123
作詞	-11.4123
登場人物	-11.4124
方にも	-11.4124
は少なく	-11.4125
カ所	-11.4125
方法について	-11.4125
一覧を見る	-11.4127
継ぎ	-11.4128
高等	-11.4128
というわけで	-11.4128
観た	-11.4129
阪急	-11.4129
していても	-11.413
謎の	-11.413
てきます	-11.4132
臣	-11.4132
おくと	-11.4132
被告	-11.4133
サポーター	-11.4134
良いのか	-11.4135
じゅう	-11.4136
完全な	-11.4136
名古屋市	-11.4138
瀬戸	-11.4138
命を	-11.4139
婆	-11.414
砕	-11.4141
画家	-11.4141
どちらが	-11.4142
経歴	-11.4142
わりと	-11.4142
My	-11.4144
を発揮	-11.4146
正常	-11.4146
聞け	-11.4147
なくては	-11.4149
眉	-11.4149
よいでしょう	-11.415
ネジ	-11.415
根本	-11.4151
この頃	-11.4151
の強化	-11.4152
とんでもない	-11.4152
使っていた	-11.4153
復元	-11.4153
含まれている	-11.4153
消す	-11.4154
{	-11.4154
以降は	-11.4154
団地	-11.4155
行なわれ	-11.4155
合わ	-11.4157
くんの	-11.4157
併設	-11.4158
詳しくはこちら	-11.4158
併	-11.4158
ファイ	-11.4159
茶色	-11.4161
髪型	-11.4162
トレーナー	-11.4165
ft	-11.4165
ーナ	-11.4165
の時は	-11.4166
推	-11.4167
が見られる	-11.4167
の支払い	-11.4171
くさ	-11.4171
好調	-11.4171
をもたらす	-11.4171
もありますので	-11.4172
言葉は	-11.4174
を知らない	-11.4176
さば	-11.4178
させて頂きました	-11.4181
していたが	-11.4182
経由で	-11.4184
店主	-11.4184
されていません	-11.4185
フェス	-11.4185
こま	-11.4185
雛	-11.4185
なってきました	-11.4186
口から	-11.4188
させます	-11.4188
レトロ	-11.4189
受けて	-11.4191
に当たって	-11.4192
焦点	-11.4194
静か	-11.4195
発生した	-11.4195
落ち着き	-11.4195
ガンダム	-11.4196
ラジ	-11.4196
ビザ	-11.4198
信頼性	-11.4199
買取業者	-11.42
カミ	-11.4202
注意が必要です	-11.4203
をめぐる	-11.4203
スキン	-11.4204
になろう	-11.4204
最適化	-11.4205
随	-11.4205
イロ	-11.4209
指針	-11.4209
成分が	-11.4209
▁Amazon	-11.421
ジョブ	-11.4211
ea	-11.4211
身体を	-11.4211
を拡大	-11.4212
花火大会	-11.4212
会見	-11.4212
タコ	-11.4213
現在も	-11.4213
ばれ	-11.4215
を構築	-11.4215
間近	-11.4218
マチ	-11.4218
バナー	-11.4219
微妙に	-11.4219
とかいう	-11.4219
鳴り	-11.422
危	-11.4222
裾	-11.4223
SL	-11.4224
いかにも	-11.4225
こだわりの	-11.4225
浜松	-11.4227
イラ	-11.4228
古墳	-11.4229
敏感	-11.423
療養	-11.4235
置き換え	-11.4237
一般的	-11.4239
視察	-11.4239
排除	-11.424
明記	-11.4241
進んだ	-11.4241
シワ	-11.4241
狩	-11.4242
わけじゃない	-11.4242
たのに	-11.4242
act	-11.4243
てない	-11.4245
ンス	-11.4246
それぞれに	-11.4246
おっ	-11.4247
無償	-11.4247
▁こんばんは	-11.4248
閉店	-11.4248
着る	-11.4249
タリ	-11.4249
ものだった	-11.4251
敷き	-11.4252
断熱	-11.4252
鳴ら	-11.4257
キャンプ場	-11.4258
が集まる	-11.4258
るだけで	-11.4258
高かった	-11.4258
のだけれど	-11.4259
職員の	-11.4259
そっと	-11.426
ばた	-11.4262
麻酔	-11.4263
EP	-11.4263
重宝	-11.4264
探す	-11.4265
妙に	-11.4265
学的	-11.4265
頑張り	-11.4266
対決	-11.4266
をきっかけに	-11.4266
貼り付け	-11.427
困って	-11.4271
とのことで	-11.4272
min	-11.4273
のうちに	-11.4274
基金	-11.4275
宇都宮	-11.4275
出会い系サイト	-11.4275
行ってきました	-11.4277
▁なんだか	-11.4278
ミュー	-11.4278
ロリ	-11.4279
とん	-11.428
を見せる	-11.428
を追い	-11.4281
救い	-11.4281
注目を集め	-11.4281
を育てる	-11.4281
好きで	-11.4282
}	-11.4283
樹木	-11.4284
に参加する	-11.4284
の拡大	-11.4284
De	-11.4286
それらを	-11.4286
年半	-11.4287
質感	-11.4287
マリー	-11.4288
昆布	-11.4289
くす	-11.4289
水曜日	-11.429
摘	-11.4292
その後も	-11.4292
ブログに	-11.4293
違	-11.4294
出会	-11.4297
pro	-11.4298
の強さ	-11.4299
皮脂	-11.43
は絶対に	-11.4302
が生じる	-11.4303
夏は	-11.4307
親族	-11.4308
と考えた	-11.4309
させない	-11.431
三井	-11.431
だわ	-11.4311
世の	-11.4311
せよ	-11.4313
そんな時	-11.4314
あがり	-11.4316
間取り	-11.4316
ことはできません	-11.4316
腫れ	-11.4317
に置いて	-11.4317
引け	-11.4317
てから	-11.4317
熟成	-11.4317
てくれ	-11.4317
my	-11.432
になれ	-11.4321
じゅ	-11.4323
貼	-11.4323
怖	-11.4323
よくわからない	-11.4325
と思ってます	-11.4325
しておくと	-11.4325
行われた	-11.4325
JP	-11.4326
美味しさ	-11.4327
その時に	-11.4328
矛盾	-11.4328
経理	-11.4329
そうでない	-11.433
停車	-11.433
IO	-11.433
分野の	-11.4332
おまけに	-11.4332
余計な	-11.4332
帆	-11.4332
の構築	-11.4334
大きめ	-11.4335
がけ	-11.4336
同居	-11.4336
でもなく	-11.4337
ジャム	-11.4337
と一緒	-11.4338
額は	-11.4338
が同じ	-11.4338
撮れ	-11.4339
Do	-11.434
のだと思います	-11.4341
ロイヤル	-11.4343
挙げられ	-11.4343
を楽しめる	-11.4344
戻し	-11.4344
一度は	-11.4345
いいのに	-11.4347
皮膚科	-11.4347
~~~	-11.4347
ジュン	-11.4347
ミーティング	-11.4347
ほどに	-11.4347
食料	-11.4348
に立つ	-11.4349
もらえ	-11.4349
▁大阪府	-11.435
変わらず	-11.4351
シャル	-11.4352
世に	-11.4352
揃って	-11.4352
異なり	-11.4353
クルーズ	-11.4353
きっちり	-11.4356
んでしょう	-11.4356
VS	-11.4357
侵害	-11.4358
の資格	-11.4359
伝えられ	-11.436
いったん	-11.4362
時間半	-11.4364
アップロード	-11.4364
隔	-11.4366
はまだまだ	-11.4366
される方	-11.4368
を立て	-11.4369
給食	-11.4369
ワールドカップ	-11.437
思いっきり	-11.437
LP	-11.4371
腎	-11.4372
さわ	-11.4373
ということになります	-11.4373
po	-11.4373
原子力	-11.4373
台詞	-11.4373
スティ	-11.4373
と考えられます	-11.4374
を少し	-11.4374
体型	-11.4375
に電話	-11.4376
バレエ	-11.4376
聞こえる	-11.4379
DR	-11.4379
を意味する	-11.438
馬場	-11.438
夏に	-11.438
司法書士	-11.438
送った	-11.4381
おかしく	-11.4382
ごめん	-11.4383
も同様	-11.4383
すく	-11.4384
日米	-11.4385
に従事	-11.4387
イケメン	-11.4387
レポ	-11.4388
がついた	-11.4389
こそが	-11.439
貧	-11.439
意外な	-11.439
ものとして	-11.4391
当局	-11.4392
しなければなりません	-11.4393
ポッ	-11.4393
頼んで	-11.4394
本日は	-11.4395
てき	-11.4396
おなじみ	-11.4396
行くと	-11.4397
に出た	-11.4398
明確に	-11.4399
首を	-11.4399
モス	-11.4401
を越えて	-11.4402
現れる	-11.4402
慈	-11.4404
はいけません	-11.4404
ヴェル	-11.4405
だったと思います	-11.4406
▁コメントを書く	-11.4406
くなりました	-11.4409
IL	-11.4409
熱く	-11.4411
季節の	-11.4412
今季	-11.4412
止まって	-11.4412
顎	-11.4415
琉球	-11.4415
ウエ	-11.4415
を借りて	-11.4415
勝手	-11.4416
飼	-11.4417
回す	-11.4417
誓	-11.4417
を開設	-11.4419
日産	-11.4419
察	-11.442
驚か	-11.442
リエ	-11.4422
染み	-11.4422
と考えております	-11.4423
撤去	-11.4423
目線	-11.4423
ルン	-11.4424
アリス	-11.4424
で作った	-11.4425
群馬	-11.4428
dy	-11.4429
範囲で	-11.4429
宮崎県	-11.4429
すべてが	-11.443
であったが	-11.443
を始めて	-11.4433
身体に	-11.4433
ツイン	-11.4434
自慢の	-11.4435
詳細な	-11.4437
先発	-11.4438
づく	-11.4441
おし	-11.4443
長崎県	-11.4445
満ち	-11.4446
学力	-11.4446
PI	-11.4447
本件	-11.4447
強調	-11.4447
も一緒に	-11.4448
に接続	-11.4449
▁主な	-11.4449
ビック	-11.445
He	-11.445
氏と	-11.445
中々	-11.4454
案外	-11.4454
与え	-11.4455
精密	-11.4455
ものも	-11.4459
隣に	-11.446
リッチ	-11.446
パーマ	-11.4461
ユーザーが	-11.4461
しまうので	-11.4461
を徹底	-11.4461
もんね	-11.4462
画像は	-11.4467
クッション	-11.4467
目指す	-11.4468
集計	-11.4468
那須	-11.4468
流出	-11.4469
day	-11.4469
で構成され	-11.4469
すれ	-11.447
なのである	-11.447
んぼ	-11.447
微笑	-11.447
薬物	-11.4471
賭け	-11.4471
生じた	-11.4472
いたこと	-11.4475
妥当	-11.4475
殺し	-11.4475
しますか	-11.4476
遺伝	-11.4476
そー	-11.4476
タス	-11.4477
を活用して	-11.4478
お墓	-11.4478
プレゼン	-11.4479
世紀の	-11.4479
無駄な	-11.448
おもてなし	-11.448
を合わせて	-11.4485
習得	-11.4485
脱出	-11.4486
に該当する	-11.4486
を聞き	-11.4486
メイト	-11.4486
心身	-11.4486
下さった	-11.4486
とは思いますが	-11.4488
が大変	-11.4489
疎	-11.4489
多々	-11.4489
カーブ	-11.4491
感じて	-11.4493
漢方	-11.4493
天国	-11.4494
テンポ	-11.4495
もっと見る	-11.4495
メソッド	-11.4496
がおすすめ	-11.4497
が無く	-11.4497
れなかった	-11.4498
明確な	-11.4498
クソ	-11.4499
希望者	-11.45
低減	-11.4501
と云	-11.4501
浮かび	-11.4502
愛車	-11.4504
の選択	-11.4504
速く	-11.4505
ちゃって	-11.4506
位置づけ	-11.4506
歩み	-11.4508
似合う	-11.4509
▁▽	-11.451
愛媛県	-11.4511
入っている	-11.4512
筈	-11.4514
使命	-11.4514
の話を	-11.4514
野村	-11.4515
お笑い	-11.4516
疲れて	-11.4518
債権	-11.4518
届出	-11.4519
数回	-11.452
電子書籍	-11.452
度目の	-11.4521
ga	-11.4523
のが一番	-11.4524
にはならない	-11.4524
になってくる	-11.4524
Li	-11.4526
扱う	-11.4526
買い替え	-11.4526
凶	-11.4526
end	-11.4527
パンチ	-11.4528
ぞう	-11.4528
運搬	-11.4528
一貫	-11.4529
見ない	-11.4529
年々	-11.453
モダン	-11.453
はございません	-11.4531
ないまま	-11.4533
選抜	-11.4533
シャープ	-11.4534
を進めて	-11.4535
いん	-11.4536
ときも	-11.4536
ティア	-11.4538
惨	-11.4538
演習	-11.4539
メロン	-11.454
べきだ	-11.454
のではないかと思います	-11.4542
たまま	-11.4542
らしき	-11.4542
暑く	-11.4543
▁どうも	-11.4546
世界一	-11.4546
変化する	-11.4547
停	-11.4548
本気	-11.4551
アット	-11.4551
ブレンド	-11.4552
ドロップ	-11.4552
に出場	-11.4554
っていうか	-11.4556
明石	-11.4556
か分からない	-11.4556
ヲ	-11.4557
に目を	-11.4557
という方は	-11.4559
去	-11.456
債	-11.456
署	-11.4561
FI	-11.4561
統	-11.4561
業者は	-11.4561
TM	-11.4562
がしっかり	-11.4564
ドラッグストア	-11.4565
胸に	-11.4565
子ども達	-11.4566
銘	-11.4567
ONE	-11.4568
着替え	-11.4568
人々は	-11.4568
育て	-11.4568
へ向かう	-11.4569
市場で	-11.4569
やすくなります	-11.4569
滴	-11.457
もらおう	-11.4571
メス	-11.4572
ここ数年	-11.4573
仕方がない	-11.4573
駅まで	-11.4574
信頼できる	-11.4574
と言う事	-11.4574
を図り	-11.4574
漆	-11.4575
実物	-11.4576
母が	-11.4577
どうすれば	-11.4577
少なかった	-11.4578
おもしろ	-11.4579
イング	-11.458
スノー	-11.458
ンド	-11.458
認める	-11.458
しそう	-11.458
から見た	-11.4581
になるか	-11.4581
より良い	-11.4581
辰	-11.4582
の一種	-11.4583
ことについて	-11.4584
福田	-11.4585
幕府	-11.4585
香川県	-11.4586
機能性	-11.4587
拝見	-11.4588
経路	-11.4588
年ぶりに	-11.4589
がかかります	-11.459
に入っている	-11.459
志向	-11.459
bi	-11.459
抗議	-11.4591
言いながら	-11.4591
を提示	-11.4591
高知県	-11.4591
甘み	-11.4592
先は	-11.4592
カモ	-11.4593
定め	-11.4593
の滝	-11.4593
単純な	-11.4595
野田	-11.4595
おろし	-11.4595
のかしら	-11.4597
歳以上	-11.4597
したかった	-11.4598
濃厚	-11.4598
見ていて	-11.4598
のせいで	-11.4599
▁神奈川県	-11.4599
イク	-11.4599
半額	-11.46
ご確認ください	-11.4601
見方	-11.4601
の提案	-11.4602
ギャップ	-11.4602
情報や	-11.4603
休止	-11.4603
肉体	-11.4606
塗る	-11.4608
じて	-11.4608
朝日新聞	-11.4608
したため	-11.4608
をきちんと	-11.4608
ところまで	-11.4609
しておきたい	-11.4609
尽き	-11.461
がすごく	-11.4611
圧倒的な	-11.4611
放映	-11.4612
▁これも	-11.4612
茹で	-11.4613
全力で	-11.4613
ワケ	-11.4613
ようなので	-11.4614
境界	-11.4616
寒く	-11.4616
シック	-11.4618
一人暮らし	-11.4619
こちらに	-11.4621
ツヤ	-11.4622
今夜	-11.4622
使われ	-11.4624
キル	-11.4624
原則として	-11.4625
からといって	-11.4628
人によって	-11.4628
を指す	-11.4629
電鉄	-11.463
集まった	-11.463
フォント	-11.4631
ヽ	-11.4631
映画館	-11.4632
挿入	-11.4633
の人々	-11.4633
のクチコミ	-11.4634
視点で	-11.4634
入れ替え	-11.4635
大勢	-11.4636
運転手	-11.4636
してみたい	-11.4636
シャネル	-11.4637
同社の	-11.4637
アルファ	-11.4637
WA	-11.4638
新卒	-11.4639
セリ	-11.464
ny	-11.464
家づくり	-11.464
人格	-11.4641
アドバイスを	-11.4641
マラ	-11.4641
燃費	-11.4641
。○	-11.4641
重く	-11.4642
じゃなく	-11.4642
郊外	-11.4643
くださいませ	-11.4643
沖縄の	-11.4643
セレクト	-11.4644
エレベーター	-11.4645
闇金	-11.4646
を満た	-11.4647
の末	-11.4648
ベースの	-11.465
褒め	-11.465
見せて	-11.4651
マグ	-11.4651
県道	-11.4651
金額が	-11.4651
ひかり	-11.4653
なのでしょう	-11.4654
美白	-11.4655
ミサイル	-11.4656
大塚	-11.4656
前記	-11.4657
医師の	-11.4657
キッ	-11.4659
フレッシュ	-11.4659
いきたいと思います	-11.466
を訪問	-11.4661
安価	-11.4662
炭酸	-11.4664
に変換	-11.4666
ということだ	-11.4667
プロレス	-11.4671
このとき	-11.4671
ヌー	-11.4671
use	-11.4672
かもしれないが	-11.4672
買おう	-11.4673
なるもの	-11.4674
ストラ	-11.4675
が増えている	-11.4675
絡み	-11.4676
高まり	-11.4676
恒	-11.4676
メロ	-11.4678
医療費	-11.4678
タク	-11.4678
直径	-11.4679
目立つ	-11.468
ということも	-11.4681
を明確に	-11.4681
==	-11.4683
勝った	-11.4683
ジェン	-11.4683
のかなぁ	-11.4684
かなー	-11.4685
ロイ	-11.4686
付きで	-11.4686
を演出	-11.4687
ネオ	-11.4688
を確認し	-11.4689
サス	-11.469
前年	-11.469
なんだから	-11.4693
しまして	-11.4693
何回も	-11.4694
わかりました	-11.4695
整体	-11.4695
取り組む	-11.4696
健康に	-11.4696
音質	-11.4697
大会で	-11.4699
しておりました	-11.4699
がメイン	-11.47
を広げ	-11.4701
見事な	-11.4701
閉め	-11.4702
AA	-11.4702
映え	-11.4702
とも言える	-11.4703
生産者	-11.4706
ゆえに	-11.4707
が決定	-11.4707
〒	-11.4708
になりますので	-11.471
することなく	-11.4711
震	-11.4711
斑	-11.4711
中国人	-11.4711
ボーカル	-11.4711
なんですよね	-11.4712
易い	-11.4712
知名度	-11.4716
ブライダル	-11.4716
分かりやすい	-11.4718
焼く	-11.4718
いわば	-11.4719
ドイツの	-11.472
虫歯	-11.4721
感のある	-11.4721
最終回	-11.4722
たいへん	-11.4722
伝達	-11.4725
考えれば	-11.4726
開かれた	-11.4726
を受け入れ	-11.4728
困っている	-11.4728
どうしたら	-11.4728
配列	-11.4728
盛り上がって	-11.473
ミュージシャン	-11.4732
専門医	-11.4732
美容液	-11.4733
筑	-11.4733
Ex	-11.4734
視界	-11.4735
だと思いますが	-11.4736
年頃	-11.4737
ヨーグルト	-11.4737
ロケット	-11.4737
▁千葉県	-11.4738
出来れば	-11.4739
ナシ	-11.4739
動機	-11.474
態	-11.474
行か	-11.4742
ない場合は	-11.4743
ようでした	-11.4743
しているところ	-11.4745
姫路	-11.4745
藤田	-11.4746
可愛	-11.4747
地形	-11.4747
おまけ	-11.4747
ロビー	-11.4751
自由な	-11.4751
嬉しかった	-11.4752
減った	-11.4753
サバ	-11.4753
肥満	-11.4754
メダル	-11.4754
つつも	-11.4755
の美しさ	-11.4755
窓から	-11.4755
そこの	-11.4759
発売日	-11.4759
▁財布	-11.4761
する時	-11.4761
有力	-11.4761
つもりです	-11.4762
を支援する	-11.4763
望んで	-11.4764
すいません	-11.4764
▁当サイト	-11.4764
資材	-11.4764
監	-11.4765
番目の	-11.4766
検索する	-11.4766
▁<<	-11.4768
たところ	-11.4769
TB	-11.4769
ホイ	-11.4769
楽しかったです	-11.4769
オシャレ	-11.477
尋	-11.477
が沢山	-11.477
場合も	-11.4772
遠慮	-11.4773
紗	-11.4774
究極の	-11.4774
頂きます	-11.4776
できるのは	-11.4777
真理	-11.4778
死者	-11.4779
開通	-11.4779
飼い	-11.478
の中を	-11.4781
の中身	-11.4782
本人の	-11.4782
▁このように	-11.4783
あんなに	-11.4785
に参加して	-11.4786
ョ	-11.4787
イマイチ	-11.4789
聞いたこと	-11.4791
安倍	-11.4792
と違い	-11.4794
あたりの	-11.4794
も無く	-11.4794
普段の	-11.4796
監修	-11.4796
も結構	-11.4797
を受けました	-11.4797
大賞	-11.4798
リアルタイム	-11.4799
を迎えた	-11.4801
っちゃいました	-11.4803
▁タグ	-11.4804
部活	-11.4806
ばい	-11.4807
んじ	-11.4809
悪くない	-11.4809
稚	-11.481
▁is	-11.481
破産	-11.4812
やかに	-11.4813
プライ	-11.4813
ンと	-11.4814
苦手な	-11.4819
原点	-11.4819
東部	-11.482
落語	-11.482
冗談	-11.4822
いかがですか	-11.4823
クレーム	-11.4824
真っ	-11.4824
予感	-11.4824
使用している	-11.4825
ようになっています	-11.4825
ph	-11.4827
電圧	-11.4829
役所	-11.483
▁Google	-11.483
分けて	-11.4831
意外	-11.4831
富山県	-11.4832
中心部	-11.4832
ハゲ	-11.4833
猪	-11.4833
飼い主	-11.4834
ぶどう	-11.4834
入らない	-11.4834
心地よい	-11.4837
ひとりで	-11.4837
ご用意	-11.4837
〇〇	-11.4838
▁そろそろ	-11.4838
主導	-11.4838
の誕生日	-11.4839
今後とも	-11.484
ょ	-11.4841
こりゃ	-11.4841
ang	-11.4842
ナカ	-11.4843
数百	-11.4844
ないのは	-11.4845
青木	-11.4845
お取り寄せ	-11.4846
見直	-11.4848
オラ	-11.485
存在します	-11.485
何とも	-11.485
必要はありません	-11.4851
カルシウム	-11.4852
の活躍	-11.4853
で探す	-11.4853
粘	-11.4855
連日	-11.4856
残高	-11.4857
イケ	-11.4858
を開き	-11.4859
先生と	-11.486
FT	-11.4862
これほど	-11.4865
倍の	-11.4866
図面	-11.4866
その中に	-11.4867
去る	-11.4868
陳	-11.4868
夫妻	-11.4869
たのか	-11.487
を増やし	-11.487
科学的	-11.4873
常連	-11.4874
ジオ	-11.4875
会える	-11.4876
を付け	-11.4876
深刻な	-11.4877
講習会	-11.4877
のよい	-11.4877
を取った	-11.4878
制約	-11.488
きたら	-11.4881
駆動	-11.4881
掴	-11.4882
友人の	-11.4883
石田	-11.4883
楽しみながら	-11.4885
堤	-11.4886
アミ	-11.4886
校長	-11.4886
すぎない	-11.4887
使わず	-11.4887
催	-11.4888
ルアー	-11.4888
表示される	-11.4889
政党	-11.489
をクリックして	-11.489
その間	-11.4891
を発表した	-11.4893
悲しみ	-11.4893
に対応する	-11.4895
まっすぐ	-11.4895
▁買取り	-11.4896
ラリー	-11.4896
回った	-11.4896
系列	-11.4896
感染者	-11.4899
が原因で	-11.49
ページです	-11.4902
呑	-11.4902
を基に	-11.4903
掘	-11.4903
名詞	-11.4904
脅威	-11.4904
期待できる	-11.4907
ML	-11.4908
望ましい	-11.4909
と思いながら	-11.491
の育成	-11.491
ドック	-11.491
電流	-11.4912
していただき	-11.4914
抱き	-11.4914
された方	-11.4914
英文	-11.4914
佐野	-11.4915
同級生	-11.4915
マキ	-11.4916
家庭用	-11.4918
泳	-11.4918
DL	-11.4918
ギン	-11.4921
したときに	-11.4921
暗く	-11.4923
広域	-11.4923
するときに	-11.4924
感触	-11.4925
技法	-11.4925
しゅう	-11.4925
メールマガジン	-11.4925
作成した	-11.4926
カプセル	-11.4926
留学生	-11.4926
lu	-11.4926
ならびに	-11.4928
ひまわり	-11.4928
当日の	-11.4928
味を	-11.4931
なよ	-11.4931
のニーズ	-11.4932
は誰	-11.4933
こともできる	-11.4934
メカニズム	-11.4934
呼	-11.4935
じっと	-11.4935
面談	-11.494
省エネ	-11.4941
を済ませ	-11.4941
披露宴	-11.4943
お断り	-11.4943
垂れ	-11.4946
子供に	-11.4947
と言われました	-11.4948
歩道	-11.4948
リフレッシュ	-11.4949
イエロー	-11.495
自動車道	-11.495
を狙う	-11.495
進めて	-11.495
ご提供	-11.4951
面倒な	-11.4952
を作成し	-11.4952
増大	-11.4955
親父	-11.4956
初期の	-11.4956
のは難しい	-11.4957
を踏まえ	-11.4957
Al	-11.4957
多かった	-11.4957
松田	-11.4958
爺	-11.4958
考えています	-11.496
安心感	-11.496
の一環として	-11.4961
そしたら	-11.4962
もとても	-11.4962
前作	-11.4962
ない場合	-11.4963
球団	-11.4963
と言えるでしょう	-11.4963
お疲れ	-11.4963
ポロ	-11.4964
出さない	-11.4965
ここが	-11.4967
ランダム	-11.4968
への道	-11.4969
にまつわる	-11.497
は何も	-11.4971
プラチナ	-11.4973
額を	-11.4973
欠点	-11.4974
遭	-11.4975
ギャル	-11.4975
ポテト	-11.4975
部会	-11.4976
面白さ	-11.4976
オーラ	-11.4977
ブドウ	-11.4979
サイエンス	-11.4979
出会い系	-11.498
負けて	-11.4982
の必要性	-11.4983
衣類	-11.4983
飯田	-11.4984
願う	-11.4985
の思い出	-11.4986
石井	-11.4986
ds	-11.4987
本町	-11.4987
前後の	-11.4987
と思うのです	-11.4987
マイケル	-11.4988
が続き	-11.4989
まわ	-11.4989
アキ	-11.499
強力	-11.499
を探している	-11.499
たい方	-11.4991
ある程度の	-11.4991
に大きく	-11.4991
□	-11.4991
手持ち	-11.4992
と申します	-11.4992
出せない	-11.4993
感じている	-11.4993
好きだった	-11.4993
っちゃって	-11.4993
でもあり	-11.4994
AGA	-11.4995
したいという	-11.4995
鎖	-11.4999
iOS	-11.4999
その頃	-11.5001
近鉄	-11.5001
やけ	-11.5002
宝塚	-11.5002
急速に	-11.5003
婦人	-11.5004
高温	-11.5005
洗剤	-11.5005
めい	-11.5006
連続で	-11.5006
ファーム	-11.5006
の専門家	-11.5008
加算	-11.5009
しちゃった	-11.5009
じり	-11.501
晒	-11.5011
つくる	-11.5012
夢を	-11.5012
湿度	-11.5012
なんていう	-11.5014
大幅	-11.5014
ストーン	-11.5014
きょ	-11.5015
に適した	-11.5016
国内の	-11.5016
気持ちは	-11.5016
イエ	-11.5017
ポット	-11.5018
ぶら	-11.5019
ウェル	-11.5019
をすれば	-11.5019
面白	-11.5019
残念です	-11.5021
させられ	-11.5021
おススメ	-11.5021
まいります	-11.5022
Vol	-11.5023
倫理	-11.5027
マックス	-11.5027
鮮やかな	-11.5027
が表示されます	-11.5027
乙女	-11.5028
震え	-11.5028
いいけど	-11.5029
んか	-11.503
一家	-11.5031
に耐え	-11.5031
気付いた	-11.5032
PP	-11.5033
お姉さん	-11.5033
つづけ	-11.5034
が安い	-11.5034
曲げ	-11.5034
視点から	-11.5034
さほど	-11.5035
た場合	-11.5035
んじゃないの	-11.5036
アナウンサー	-11.5037
になるのは	-11.5038
を保つ	-11.5038
厚み	-11.5038
校舎	-11.5039
薫	-11.5039
らぬ	-11.504
カラダ	-11.504
悲	-11.504
予報	-11.5041
を終え	-11.5041
品物	-11.5042
とは思って	-11.5042
慌てて	-11.5044
町田	-11.5044
に最適な	-11.5046
はてな	-11.5047
花粉症	-11.5049
獲	-11.505
という事で	-11.505
淵	-11.505
慣れた	-11.5051
見つめ	-11.5052
確信	-11.5055
シルク	-11.5056
長谷川	-11.5056
QR	-11.5058
日立	-11.5063
お店に	-11.5064
GE	-11.5064
ロボ	-11.5064
視聴者	-11.5065
のところに	-11.5066
穏やかな	-11.5067
ナイフ	-11.5069
ボルト	-11.5069
買取り	-11.507
納期	-11.507
泊まり	-11.507
惜し	-11.5072
繰り返	-11.5073
本当にありがとうございました	-11.5073
たび	-11.5073
失点	-11.5073
わせて	-11.5073
ss	-11.5074
経つ	-11.5074
喜ぶ	-11.5074
教えてくれ	-11.5074
売っている	-11.5075
DNA	-11.5077
絶望	-11.5079
改札	-11.5079
絶景	-11.5079
の中にある	-11.5081
なかで	-11.5082
国境	-11.5083
を歩く	-11.5086
わせる	-11.5087
置いた	-11.5088
裏側	-11.5088
頭部	-11.5088
ソファ	-11.5089
▁あなたは	-11.509
に追い	-11.509
十字	-11.5091
▁埼玉県	-11.5091
惚れ	-11.5092
のかどうか	-11.5094
を見ている	-11.5095
サービスです	-11.5097
正体	-11.5098
平等	-11.5098
を残して	-11.5099
カルチャー	-11.5099
いただくこと	-11.51
アウトレット	-11.5101
火曜日	-11.5101
を終えて	-11.5102
改め	-11.5102
漂	-11.5102
曖昧	-11.5103
売り場	-11.5105
プロミス	-11.5105
上級	-11.5105
けり	-11.5106
FL	-11.5106
が出てきて	-11.5107
上流	-11.5108
言い訳	-11.5109
SR	-11.5111
いまだに	-11.5112
FO	-11.5113
烏	-11.5113
塗って	-11.5115
グランプリ	-11.5115
が出ない	-11.5116
兼ね	-11.5117
カメラマン	-11.5117
を生み出す	-11.5118
別荘	-11.5119
届かない	-11.512
BB	-11.512
葉酸	-11.5121
照射	-11.5121
食べられ	-11.5122
ts	-11.5123
叫び	-11.5123
で使う	-11.5123
iv	-11.5124
解答	-11.5126
CL	-11.5126
がよい	-11.5126
すこし	-11.5127
すっ	-11.5128
アンチ	-11.5128
くださり	-11.5128
教養	-11.513
しませんか	-11.513
のコツ	-11.5132
着て	-11.5133
▁過去の	-11.5133
がありましたが	-11.5134
ご利用ください	-11.5137
存在しない	-11.5138
山梨	-11.5138
真っ白	-11.514
凡	-11.514
親が	-11.5142
銀河	-11.5143
者たち	-11.5143
であることが	-11.5143
市販の	-11.5144
津市	-11.5146
タスク	-11.5146
身近に	-11.5147
営業所	-11.5147
しておりますので	-11.5147
他者	-11.5148
なってくる	-11.5148
代理	-11.5149
修繕	-11.5149
言うこと	-11.5149
雑談	-11.5149
pp	-11.515
を乗り越え	-11.515
なんてこと	-11.5151
壇	-11.5152
有ります	-11.5153
してしまうと	-11.5153
を通過	-11.5153
MAX	-11.5153
コス	-11.5156
国籍	-11.5158
募集中	-11.5158
チェン	-11.5159
mail	-11.516
紡	-11.516
を流し	-11.516
津波	-11.5161
に分けて	-11.5163
連中	-11.5164
通って	-11.5164
十三	-11.5165
ご利用いただけます	-11.5166
焼いて	-11.5166
まぶた	-11.5167
終盤	-11.5167
をかけた	-11.5167
目的地	-11.5167
岩手	-11.5167
化された	-11.5169
ありえない	-11.517
なぞ	-11.517
子宮	-11.517
ように見える	-11.5171
拡散	-11.5171
をすべて	-11.5171
着け	-11.5172
招き	-11.5173
補足	-11.5173
業務用	-11.5175
終わりました	-11.5177
神田	-11.5178
!』	-11.5179
浮き	-11.518
出費	-11.518
それ以外の	-11.5181
杜	-11.5182
抹茶	-11.5182
ふた	-11.5183
舞い	-11.5184
トク	-11.5184
が低く	-11.5187
抱	-11.5187
落札	-11.5188
カレ	-11.5188
圧迫	-11.5188
キュート	-11.5189
正式	-11.5189
望み	-11.5192
過ごした	-11.5192
撤退	-11.5192
鑑	-11.5196
程度に	-11.5198
きれ	-11.5198
世界的に	-11.5199
似て	-11.52
を知っている	-11.52
自分だけ	-11.5202
線路	-11.5202
月期	-11.5204
伸びる	-11.5205
顕	-11.5205
もしない	-11.5205
全国に	-11.5206
掌	-11.5206
希少	-11.5207
GR	-11.5207
月間	-11.5209
サーチ	-11.5209
変革	-11.5211
の動向	-11.5212
やさしく	-11.5213
もございます	-11.5213
くらし	-11.5214
和室	-11.5215
懐かし	-11.5217
創出	-11.5217
ることができ	-11.5218
気持ちよく	-11.5218
の規定	-11.5219
が得られ	-11.5221
ジング	-11.5221
ゃ	-11.5221
を続け	-11.5221
の現場	-11.5223
くらいです	-11.5224
騎士	-11.5224
を注文	-11.5225
おなか	-11.5225
進んでいる	-11.5226
サンタ	-11.5226
蜂	-11.5227
ビジュアル	-11.5228
健康な	-11.5228
られず	-11.5229
にしよう	-11.5229
を共有	-11.523
内臓	-11.5231
思えば	-11.5231
をゲット	-11.5231
お邪魔	-11.5232
先進	-11.5232
スニーカー	-11.5233
問題なく	-11.5234
っつ	-11.5234
はそのまま	-11.5235
楽しめ	-11.5235
リソース	-11.5236
自分と	-11.5238
ビリ	-11.5239
の調整	-11.524
額が	-11.524
YA	-11.524
そん	-11.524
娘が	-11.5241
バット	-11.5241
得意な	-11.5242
黙って	-11.5243
爆笑	-11.5244
台所	-11.5245
繁	-11.5246
旅行記	-11.5247
ご存じ	-11.5247
来年の	-11.5247
法的	-11.5248
付けた	-11.5249
誠実	-11.525
はじまり	-11.525
本人が	-11.525
接近	-11.5251
時期は	-11.5251
中世	-11.5251
どっか	-11.5251
もあるし	-11.5253
横断	-11.5254
外に出	-11.5255
高血圧	-11.5255
Be	-11.5256
にぴったり	-11.5257
を理解する	-11.5257
名作	-11.5257
後方	-11.526
背負	-11.5261
がうまく	-11.5262
一時的に	-11.5262
はずなのに	-11.5263
えび	-11.5263
この先	-11.5263
肩こり	-11.5263
競合	-11.5264
離島	-11.5264
ご感想	-11.5265
ウォー	-11.5265
)【	-11.5267
鍛え	-11.5267
にわたる	-11.5267
背後	-11.5268
不動	-11.5268
ご挨拶	-11.5268
在住の	-11.5269
放出	-11.5273
文法	-11.5274
TC	-11.5274
テール	-11.5278
合っている	-11.5279
小学	-11.5281
につれて	-11.5281
示唆	-11.5282
あらためて	-11.5282
入賞	-11.5282
蹴	-11.5284
目立ち	-11.5284
教育委員会	-11.5285
収支	-11.5285
立っている	-11.5286
会場に	-11.5287
プロダクト	-11.5287
骨折	-11.5288
---	-11.5288
法第	-11.529
五郎	-11.529
きましたが	-11.529
ご自宅	-11.529
つなぎ	-11.5291
大幅に	-11.5293
スウェーデン	-11.5293
をお持ちの方	-11.5293
広め	-11.5295
雰囲気が	-11.5295
逸品	-11.5296
一口	-11.5297
島根県	-11.5298
上手い	-11.5299
ji	-11.5301
さまざま	-11.5301
金額を	-11.5303
供養	-11.5304
見れば	-11.5304
精神的に	-11.5306
十五	-11.5307
んや	-11.5307
代表取締役	-11.5308
使用した	-11.531
イチゴ	-11.531
オススメの	-11.531
天気予報	-11.5312
くれている	-11.5313
プレミア	-11.5313
していたのですが	-11.5313
必死	-11.5314
▁≪	-11.5316
川口	-11.5317
の予防	-11.5318
チームは	-11.5318
航空券	-11.532
も少なく	-11.532
が生まれる	-11.532
コンタクト	-11.5322
外見	-11.5323
歯が	-11.5323
ものではなく	-11.5326
ドリーム	-11.5326
に向かい	-11.5328
運賃	-11.5329
金銭	-11.5329
悩ま	-11.5329
しているという	-11.533
会合	-11.5331
自治	-11.5332
栓	-11.5334
フォーマット	-11.5336
の低下	-11.5337
あず	-11.5337
姿は	-11.5338
新製品	-11.534
かつては	-11.534
歩いている	-11.5341
を狙って	-11.5342
を立てて	-11.5342
がちですが	-11.5343
切れる	-11.5343
ear	-11.5345
広がる	-11.5346
ありませんか	-11.5347
職務	-11.5347
は既に	-11.5348
SK	-11.5348
見つからない	-11.5349
やすかった	-11.5349
必要はない	-11.535
人として	-11.535
ミュージカル	-11.5351
ということになる	-11.5351
有名です	-11.5351
まずい	-11.5352
気を付け	-11.5353
ゥ	-11.5353
会場で	-11.5354
追記	-11.5355
ムス	-11.5355
注目の	-11.5356
ヘリ	-11.5361
絶品	-11.5361
水面	-11.5362
問題集	-11.5362
ロット	-11.5362
Microsoft	-11.5362
動け	-11.5363
に特化した	-11.5365
職場で	-11.5365
りょう	-11.5365
木製	-11.5366
着いて	-11.5368
とは違い	-11.537
サイバー	-11.537
岐	-11.5371
願います	-11.5371
OM	-11.5371
RP	-11.5372
私ども	-11.5373
贈る	-11.5375
なかでも	-11.5377
中川	-11.5377
オーケストラ	-11.5382
八王子	-11.5382
はともかく	-11.5382
異動	-11.5384
人以上	-11.5385
預	-11.5386
を飲み	-11.5387
がありましたら	-11.5388
の名称	-11.5389
崇	-11.539
貰って	-11.539
絶賛	-11.5391
等について	-11.5392
チャージ	-11.5394
局長	-11.5394
サマー	-11.5396
並べて	-11.5396
月より	-11.5398
(;	-11.5399
だったんです	-11.54
成り	-11.54
はここ	-11.5401
tt	-11.5402
のぼり	-11.5402
チェックイン	-11.5403
洗濯機	-11.5404
クリー	-11.5404
状に	-11.5404
含み	-11.5404
デニム	-11.5404
茨城	-11.5404
ブリッジ	-11.5405
に恵まれ	-11.5406
マジで	-11.5406
その時は	-11.5408
午後から	-11.5409
ぶれ	-11.541
この後	-11.5412
かと思いますが	-11.5412
交通費	-11.5412
オフィシャル	-11.5412
趣	-11.5413
図鑑	-11.5414
人それぞれ	-11.5416
下部	-11.5417
産後	-11.542
荷物を	-11.542
固有	-11.5421
りゃ	-11.5423
酸味	-11.5423
審判	-11.5423
メンバーが	-11.5425
ポチ	-11.5426
▁じゃあ	-11.5426
品川	-11.5427
期に	-11.5427
上陸	-11.5428
を使うこと	-11.5429
しておいて	-11.5429
食卓	-11.5429
各地	-11.543
鳥取	-11.543
次のような	-11.543
観光スポット	-11.5431
過程で	-11.5431
JAPAN	-11.5431
あったので	-11.5432
日向	-11.5432
運送	-11.5433
MR	-11.5434
骨盤	-11.5434
に連絡	-11.5436
守護	-11.5437
がある場合	-11.5438
を見ていると	-11.5439
si	-11.5441
などにも	-11.5441
ガチ	-11.5441
答弁	-11.5444
が終わった	-11.5444
カギ	-11.5445
が変わった	-11.5446
ウィルス	-11.5446
バーベキュー	-11.5447
できていない	-11.5449
を繰り返す	-11.5449
と話す	-11.5449
限られた	-11.545
頼み	-11.545
トロン	-11.5451
訪れて	-11.5451
ast	-11.5451
かご	-11.5452
になりそうです	-11.5453
が大事	-11.5453
地蔵	-11.5454
入っています	-11.5454
辿	-11.5455
なくなってしまう	-11.5456
出される	-11.5456
鳥居	-11.5457
GS	-11.5457
まんま	-11.5458
ついている	-11.5458
りたい	-11.5459
参加して	-11.546
商品名	-11.5463
けない	-11.5463
登場する	-11.5463
を確認して	-11.5463
チラ	-11.5464
高く売る	-11.5464
納品	-11.5465
ペル	-11.5467
PT	-11.5467
数日	-11.5467
が充実	-11.5468
葛	-11.5469
に変化	-11.5469
諸島	-11.5472
迄	-11.5475
昆虫	-11.5476
珈琲	-11.5476
大雨	-11.5477
を開け	-11.5477
無駄に	-11.5479
展望台	-11.5479
謝罪	-11.5481
なってきて	-11.5482
鍼灸	-11.5482
▁with	-11.5483
北欧	-11.5484
故に	-11.5484
ピュア	-11.5484
場面で	-11.5485
崖	-11.5487
籍	-11.5487
履き	-11.5488
膨大な	-11.5489
判断する	-11.5489
CK	-11.5489
トピック	-11.549
全てが	-11.549
FP	-11.549
が良かった	-11.5492
しているか	-11.5492
Ca	-11.5493
が残る	-11.5493
葬式	-11.5494
リティ	-11.5494
急行	-11.5494
階に	-11.5494
と思っていました	-11.5497
を占め	-11.5498
参加する	-11.5499
ヶ所	-11.5503
させられる	-11.5503
を続けて	-11.5504
のいずれか	-11.5505
木曜日	-11.5508
普段から	-11.5508
を機に	-11.5508
蒲	-11.5511
ピッタリ	-11.5512
ana	-11.5513
に分かれて	-11.5513
For	-11.5514
になるでしょう	-11.5514
を減らし	-11.5514
お店です	-11.5515
ムダ毛	-11.5515
歌声	-11.5516
持ち込み	-11.5516
▁Me	-11.5518
さあ	-11.5518
ight	-11.5518
開催された	-11.5519
完璧	-11.5519
将棋	-11.5521
響く	-11.5521
ゴールデン	-11.5522
重複	-11.5522
表明	-11.5524
が広がり	-11.5525
高性能	-11.5525
合唱	-11.5526
ならなかった	-11.5526
見られた	-11.5526
よろしい	-11.5529
ことが可能	-11.553
リル	-11.553
向かって	-11.553
ブロー	-11.5531
感じます	-11.5534
今週は	-11.5534
が実現	-11.5534
糖質	-11.5534
レター	-11.5534
行けない	-11.5534
に立って	-11.5535
土産	-11.5535
チェア	-11.5536
望む	-11.5536
見ていた	-11.5537
妻の	-11.5538
確定申告	-11.5539
東京で	-11.5539
高齢化	-11.554
yu	-11.554
の一つです	-11.554
発熱	-11.554
いつまで	-11.554
TT	-11.5541
が必要になります	-11.5541
ug	-11.5542
金額は	-11.5543
手続きを	-11.5545
クロー	-11.5545
やること	-11.5545
音色	-11.5546
になってきた	-11.5548
ナム	-11.5548
込まれた	-11.5549
小山	-11.5549
変数	-11.5551
友人が	-11.5551
百合	-11.5552
使いたい	-11.5553
すべてを	-11.5554
HOME	-11.5557
積み重ね	-11.5557
終わらせ	-11.5558
付着	-11.5558
りながら	-11.556
それなら	-11.5562
跳ね	-11.5563
源氏	-11.5563
チャップアップ	-11.5564
嬉しかったです	-11.5565
年賀状	-11.5565
でん	-11.5567
AB	-11.5568
井戸	-11.5568
特色	-11.5568
ものづくり	-11.5569
どうですか	-11.5569
BL	-11.557
スパイス	-11.557
蜜	-11.557
いただいている	-11.5571
の様な	-11.5571
志望	-11.5571
ヤマト	-11.5571
お散歩	-11.5572
からすると	-11.5573
除く	-11.5574
IM	-11.5574
消えた	-11.5574
影響を与え	-11.5574
貧困	-11.5575
ダッシュ	-11.5575
た後	-11.5575
意向	-11.5576
いやいや	-11.5576
大企業	-11.5576
から約	-11.5576
ぬき	-11.5577
したけど	-11.5577
することができました	-11.5578
たのが	-11.5578
オンラインで	-11.5579
出掛け	-11.5579
理科	-11.5579
カリキュラム	-11.5579
ヲタ	-11.5579
つながって	-11.5581
続けています	-11.5583
と言っている	-11.5583
下ろし	-11.5584
園芸	-11.5585
を投げ	-11.5585
必死に	-11.5585
歩行	-11.5586
キズ	-11.5586
眼科	-11.5587
されたこと	-11.5587
地面	-11.5588
らう	-11.5588
知識を	-11.5589
嫌いな	-11.5589
ですねぇ	-11.5589
パーソナル	-11.559
プレッシャー	-11.5591
が運営する	-11.5592
台数	-11.5593
ましたので	-11.5594
ムード	-11.5594
くださって	-11.5595
pt	-11.5595
改訂	-11.5595
va	-11.5596
へのアクセス	-11.5602
水中	-11.5602
ほうが良い	-11.5603
伝えたい	-11.5603
アカデミー	-11.5604
の際には	-11.5604
わが国	-11.5605
Dr	-11.5606
肝臓	-11.5606
地球温暖化	-11.5607
良し	-11.5608
に達し	-11.5609
ムーン	-11.5609
かたち	-11.561
発動	-11.561
App	-11.5611
ご自身の	-11.5611
low	-11.5611
問題がある	-11.5612
ドット	-11.5613
られること	-11.5613
関わって	-11.5615
何と	-11.5616
電機	-11.5617
の大切さ	-11.5618
という印象	-11.5619
保育所	-11.5619
祥	-11.562
アンティーク	-11.5623
伝説の	-11.5623
も多数	-11.5625
潜在	-11.5627
した時に	-11.5627
諏訪	-11.5629
を促す	-11.5629
耐え	-11.563
居心地	-11.5633
盲	-11.5634
幹事	-11.5634
ber	-11.5634
増し	-11.5634
狭く	-11.5636
左の	-11.5637
ない人	-11.5638
之助	-11.564
雀	-11.564
お互いの	-11.5641
アパレル	-11.5641
を生み出し	-11.5641
に応じ	-11.5641
ボーン	-11.5642
杏	-11.5645
材質	-11.5647
収容	-11.5648
知的	-11.5649
不安定	-11.565
▁Japan	-11.5651
目当て	-11.5651
次のように	-11.5651
周囲に	-11.5652
増殖	-11.5652
学級	-11.5652
を突き	-11.5652
rd	-11.5654
飲め	-11.5654
大山	-11.5654
公民館	-11.5654
安くて	-11.5654
ニス	-11.5655
斬	-11.5656
と思いつつ	-11.5657
知りました	-11.5657
つぼ	-11.5658
に囲まれた	-11.5658
下着	-11.5658
頂きたい	-11.5661
歴代	-11.5662
新刊	-11.5662
モト	-11.5663
絹	-11.5663
ゆめ	-11.5664
out	-11.5664
秘訣	-11.5666
出願	-11.5667
し続ける	-11.5667
の特性	-11.5669
自家製	-11.5669
てほしい	-11.567
受験生	-11.567
責め	-11.5672
独り	-11.5672
どういうこと	-11.5672
なにより	-11.5673
ご報告	-11.5673
お勧めです	-11.5674
が苦手な	-11.5676
踊	-11.5677
練り	-11.5677
均	-11.5677
を推進	-11.5678
▁このページのトップへ	-11.5679
感想を	-11.5679
カーボン	-11.5679
反面	-11.5681
もみ	-11.5681
をつくって	-11.5681
生活保護	-11.5682
ムリ	-11.5683
お届けします	-11.5683
ご説明	-11.5683
抜いて	-11.5684
JI	-11.5685
聴いた	-11.5685
徳島県	-11.5685
は基本的に	-11.5686
土台	-11.5686
がなくなる	-11.5689
させたい	-11.5689
の始まり	-11.5689
ゲイ	-11.569
部屋で	-11.5691
ポジティブ	-11.5691
を挙げて	-11.5694
があるのですが	-11.5695
啓発	-11.5696
ものとする	-11.5696
水平	-11.5697
に対しても	-11.5698
ロケ	-11.57
実証	-11.5701
場合によっては	-11.5702
色彩	-11.5702
音響	-11.5703
でしょうし	-11.5704
前進	-11.5704
来ます	-11.5705
聞か	-11.5709
わけでもない	-11.5712
広島市	-11.5712
???	-11.5712
誰かに	-11.5713
ジョージ	-11.5713
引いて	-11.5713
シナ	-11.5714
したまま	-11.5715
だけあって	-11.5716
刺身	-11.5716
高まって	-11.5717
そういう意味で	-11.5719
福岡市	-11.572
するだけ	-11.572
少量	-11.5721
大分県	-11.5722
ベンチャー	-11.5723
たいてい	-11.5723
巾	-11.5723
創り	-11.5725
運動会	-11.5726
本編	-11.5726
を差し	-11.5728
ヤフー	-11.5728
が行われました	-11.5729
オタク	-11.5729
ギャンブル	-11.573
に通う	-11.573
だったのです	-11.573
複製	-11.5731
順次	-11.5733
るん	-11.5733
屋上	-11.5735
奮闘	-11.5735
ガム	-11.5735
エッセイ	-11.5735
中断	-11.5736
二人は	-11.5736
軽井沢	-11.5737
ために必要な	-11.5738
炊き	-11.5738
輔	-11.5739
のご利用	-11.5739
様子が	-11.574
履	-11.5741
がどんどん	-11.5744
されても	-11.5744
梁	-11.5745
も大丈夫	-11.5745
牛肉	-11.5746
うっかり	-11.5749
田んぼ	-11.5749
売り切れ	-11.5749
の看板	-11.5749
▁To	-11.575
いっしょに	-11.575
募	-11.575
政府が	-11.5751
がないか	-11.5751
おこう	-11.5751
ようこそ	-11.5753
ゾー	-11.5753
福袋	-11.5753
後藤	-11.5754
ディープ	-11.5755
子供は	-11.5757
ウー	-11.5757
くち	-11.5757
を守って	-11.5758
家族が	-11.5759
夜景	-11.5759
減額	-11.5759
たまらない	-11.576
シアター	-11.576
うるさい	-11.5761
パナソニック	-11.5763
知られています	-11.5764
避けて	-11.5765
できませんでした	-11.5766
貧乏	-11.5767
されず	-11.5768
冬は	-11.577
かねない	-11.5772
ヒート	-11.5772
に乗った	-11.5772
時代から	-11.5774
お申込み	-11.5775
引く	-11.5775
SEO	-11.5777
艇	-11.5778
プロフェッショナル	-11.5778
凛	-11.5779
勝って	-11.578
小児科	-11.5781
サリ	-11.5783
理系	-11.5783
長い間	-11.5783
精一杯	-11.5784
賠償	-11.5785
ty	-11.5785
カブ	-11.5786
このあたり	-11.5786
逝	-11.5788
年以降	-11.579
月上旬	-11.579
の底	-11.579
PD	-11.5791
主題歌	-11.5792
ヴォ	-11.5793
花粉	-11.5793
able	-11.5793
はじめに	-11.5793
試しに	-11.5795
蒸	-11.5795
この点	-11.5796
詰まって	-11.5796
磐	-11.58
兵器	-11.5802
の違いは	-11.5802
ロレックス	-11.5804
出来るだけ	-11.5806
全てを	-11.5807
友人に	-11.5807
していきたいと思います	-11.5808
ビク	-11.5808
動かない	-11.5809
見出し	-11.5811
配線	-11.5811
バース	-11.5811
を構え	-11.5812
あっても	-11.5813
たちと	-11.5814
介護保険	-11.5814
を一緒に	-11.5814
を行なう	-11.5814
インスタ	-11.5816
んだろうか	-11.5817
たよ	-11.5819
足で	-11.582
関連する	-11.582
壊れ	-11.582
冷却	-11.5821
▁偽物	-11.5821
でさえ	-11.5822
そうして	-11.5823
が丘	-11.5824
じょ	-11.5824
鼓	-11.5826
Lo	-11.5827
きめ	-11.5829
顔に	-11.5831
かわい	-11.5831
眠れ	-11.5833
いちいち	-11.5836
東芝	-11.5837
デパート	-11.5837
なってしまいます	-11.5837
goo	-11.5838
を理解し	-11.5838
ase	-11.5838
生存	-11.5841
通う	-11.5842
受給	-11.5843
無難	-11.5844
に続き	-11.5845
話して	-11.5846
遠征	-11.5846
荒川	-11.5849
を備えた	-11.5849
爽やかな	-11.585
大きかった	-11.5851
心より	-11.5851
カネ	-11.5851
黙	-11.5851
引いた	-11.5852
起用	-11.5853
バチ	-11.5854
ワイヤー	-11.5854
匠	-11.5856
‘	-11.5857
をご覧下さい	-11.5859
ノーマル	-11.5859
端子	-11.5859
エジプト	-11.586
フランス語	-11.586
定価	-11.586
香りが	-11.586
くせに	-11.5861
ure	-11.5861
通販サイト	-11.5861
が人気	-11.5863
があるのです	-11.5863
助言	-11.5863
穏やか	-11.5864
それより	-11.5864
適切に	-11.5864
表面に	-11.5865
提供している	-11.5865
あがる	-11.5868
もなかなか	-11.5869
通訳	-11.5869
課程	-11.587
不安な	-11.587
思える	-11.5871
高騰	-11.5871
フタ	-11.5872
に対応した	-11.5874
フライト	-11.5875
学期	-11.5877
ぼくは	-11.5878
規	-11.5878
と思えば	-11.5879
スピン	-11.5879
ケガ	-11.588
以下に	-11.5881
貯め	-11.5881
ならん	-11.5881
携帯で	-11.5882
があるか	-11.5883
UV	-11.5884
拘	-11.5885
ウマ	-11.5887
攻	-11.5887
重症	-11.5888
ハイキング	-11.5888
Pro	-11.5888
刺繍	-11.5888
モーニング	-11.5888
でしたか	-11.5889
aka	-11.5889
気軽	-11.5889
勢いで	-11.589
航空機	-11.589
かもしれないけど	-11.5891
何十	-11.5893
極端に	-11.5893
沿線	-11.5893
頂け	-11.5894
▁be	-11.5897
凄	-11.5898
騒ぎ	-11.5898
縫	-11.5899
なにも	-11.59
への影響	-11.59
んだって	-11.59
と比べ	-11.5901
近藤	-11.5901
リットル	-11.5902
ヘイ	-11.5902
和菓子	-11.5903
ニカ	-11.5904
というイメージ	-11.5904
スクリプト	-11.5905
応援して	-11.5905
買わ	-11.5908
コンディション	-11.5909
シード	-11.5909
積極的な	-11.5912
番手	-11.5915
を育て	-11.5915
に着いた	-11.5915
パスポート	-11.5916
化合物	-11.5916
あいつ	-11.5917
をみる	-11.5917
日までに	-11.5919
正式に	-11.5919
万全	-11.592
つーか	-11.592
殺人	-11.5922
エンディング	-11.5922
味わえる	-11.5923
という名前	-11.5924
教科	-11.5925
炭素	-11.5925
やばい	-11.5927
加賀	-11.593
外食	-11.593
美味しそう	-11.593
探索	-11.593
微妙	-11.5931
人員	-11.5931
豊田	-11.5932
アポ	-11.5932
遅延	-11.5933
と思うと	-11.5933
陵	-11.5934
喫茶店	-11.5934
方面へ	-11.5935
いかなる	-11.5936
片方	-11.5937
細かな	-11.5938
を手に入れ	-11.5938
働ける	-11.5938
市にある	-11.5938
鉄板	-11.5939
出ています	-11.594
宜	-11.594
コットン	-11.594
ラッ	-11.5942
全国で	-11.5943
が得られる	-11.5943
聞きたい	-11.5945
が広がる	-11.5945
トリック	-11.5946
つば	-11.5947
は必須	-11.5948
便り	-11.5949
細く	-11.5949
北側	-11.5949
難い	-11.5949
時間を過ご	-11.5951
を伴う	-11.5951
出している	-11.5952
二度と	-11.5952
イスラエル	-11.5953
のなかに	-11.5954
必	-11.5956
種子	-11.596
リアルな	-11.596
塵	-11.596
サプライズ	-11.5961
課金	-11.5962
勝て	-11.5965
気持	-11.5965
ませんでしたが	-11.5965
住人	-11.5965
を実行	-11.5967
ハッキリ	-11.5968
マニ	-11.597
を用いる	-11.597
たっぷりの	-11.597
振り返り	-11.597
いただけ	-11.5971
家計	-11.5972
一周	-11.5972
を強化	-11.5973
するのではなく	-11.5973
小麦	-11.5975
ハンバーグ	-11.5975
年連続	-11.5977
枚数	-11.5977
公平	-11.5977
認められ	-11.5977
ヒュー	-11.5978
お受け	-11.5978
生命保険	-11.5979
不能	-11.598
宜しくお願いします	-11.598
持ってる	-11.598
DF	-11.5981
プロペシア	-11.5982
階建て	-11.5982
で作る	-11.5982
ということもあり	-11.5984
買い取って	-11.5984
契約書	-11.5984
貰う	-11.5985
周期	-11.5986
巻き込まれ	-11.5987
ワタシ	-11.5988
画質	-11.5991
NEXT	-11.5991
ひょ	-11.5993
知恵袋	-11.5995
倒産	-11.5995
避け	-11.5995
アサ	-11.5996
先ず	-11.5997
バツイチ	-11.5998
いるような	-11.5999
fi	-11.5999
退院	-11.6
の間の	-11.6002
歪	-11.6002
を遂げ	-11.6003
の数々	-11.6003
お問い合せ	-11.6003
キミ	-11.6005
のごとく	-11.6005
た時	-11.6006
育った	-11.6007
と思ってる	-11.6008
萩	-11.6009
ミヤ	-11.6011
出来ました	-11.6011
ボイ	-11.6013
ニコニコ	-11.6014
不要な	-11.6014
シオ	-11.6014
を開いて	-11.6015
ウォーク	-11.6015
主力	-11.6016
中小	-11.6016
記事一覧	-11.6017
をしても	-11.6018
動脈	-11.6018
やりたいこと	-11.6019
解決する	-11.6019
わくわく	-11.602
有名人	-11.602
止まる	-11.602
どういった	-11.6023
出来なかった	-11.6023
落とす	-11.6025
を掛け	-11.6027
キラ	-11.6027
が早い	-11.6028
沿いに	-11.6028
の主な	-11.6029
どこが	-11.6029
が見えて	-11.6029
お客様は	-11.6031
マイナー	-11.6031
にピッタリ	-11.6031
の代わりに	-11.6031
下がる	-11.6033
ご本人	-11.6034
呟	-11.6034
ベラ	-11.6034
より多くの	-11.6034
まれて	-11.6035
親友	-11.6035
賛	-11.6035
場合もある	-11.6036
をあげて	-11.6036
出会える	-11.6036
釧路	-11.6037
させていただく	-11.6038
プラグイン	-11.6038
落とした	-11.6038
ハチ	-11.6038
無意識	-11.6039
できるもの	-11.6039
ock	-11.604
うれしいです	-11.6042
引越	-11.6043
出番	-11.6043
寸法	-11.6044
つまらない	-11.6045
どうしたらいい	-11.6046
妖怪	-11.6047
しておけば	-11.6047
待遇	-11.6048
慣	-11.605
入れた	-11.605
お過ごし	-11.605
広大な	-11.6051
っぺ	-11.6051
のやり方	-11.6052
優しさ	-11.6054
暮れ	-11.6055
廃車	-11.6055
の通販	-11.6056
基本的	-11.6057
敷地内	-11.6059
群れ	-11.6059
おっしゃる	-11.606
へ行って	-11.606
終了しました	-11.606
いるのに	-11.6061
に移行	-11.6061
学べる	-11.6061
ぬる	-11.6061
いいこと	-11.6063
Th	-11.6063
を抱えて	-11.6063
質問です	-11.6064
カ国	-11.6064
聞かせて	-11.6064
などがあります	-11.6065
モモ	-11.6066
やってた	-11.6066
法務	-11.6066
自分から	-11.6067
出てきました	-11.6067
騒音	-11.6067
三日	-11.6069
その上	-11.6069
が起きる	-11.6071
近郊	-11.6072
降って	-11.6072
トップに戻る	-11.6072
苦痛	-11.6074
開催されました	-11.6075
正確	-11.6076
そこを	-11.6076
開発者	-11.6076
デフォルト	-11.6077
隊長	-11.6077
はもちろんのこと	-11.6077
秘書	-11.6078
立川	-11.6078
マック	-11.6082
に乗	-11.6083
せません	-11.6083
西側	-11.6083
締	-11.6084
Mi	-11.6084
続けること	-11.6084
値引き	-11.6085
ame	-11.6086
gi	-11.6086
煎	-11.6086
New	-11.6086
こり	-11.6087
その通り	-11.6088
瞬間に	-11.6088
ことのできる	-11.6088
バンコク	-11.609
黄色い	-11.609
ノス	-11.609
アイディア	-11.609
クリスタル	-11.6091
オカ	-11.6092
ビニール	-11.6092
リセット	-11.6093
決めました	-11.6095
chi	-11.6097
妊娠中	-11.6097
そしてその	-11.6098
ゴリ	-11.6099
秋に	-11.61
就労	-11.6101
そんな事	-11.6102
本質	-11.6103
がある場合は	-11.6103
岡崎	-11.6103
アール	-11.6103
込める	-11.6104
現地の	-11.6105
湧き	-11.6107
物価	-11.6107
ほら	-11.6108
一同	-11.6108
タダ	-11.6108
切れない	-11.6108
憂	-11.6109
を深め	-11.6111
陸上	-11.6112
デコ	-11.6113
に限って	-11.6113
レーター	-11.6114
目玉	-11.6115
だと思っています	-11.6116
クリエイター	-11.6117
車体	-11.6118
愛媛	-11.6118
コネ	-11.6119
ポイントです	-11.612
マグロ	-11.612
年代に	-11.612
がなくても	-11.612
深刻	-11.6121
してしまって	-11.6121
非公開	-11.6122
子供を	-11.6122
もらえます	-11.6123
も豊富	-11.6123
ob	-11.6124
聞くと	-11.6125
を目的とした	-11.6127
お薬	-11.6128
振って	-11.6128
宿題	-11.6129
インデックス	-11.6129
デジ	-11.613
司法	-11.613
悲し	-11.6131
新書	-11.6133
レンタカー	-11.6134
椿	-11.6134
に際して	-11.6134
ハンター	-11.6135
目撃	-11.6135
その名	-11.6136
簡単で	-11.6136
釣果	-11.6137
見られない	-11.6137
ポル	-11.6137
あろう	-11.6138
造形	-11.6139
用事	-11.6139
球場	-11.6143
直後に	-11.6144
ストレージ	-11.6145
を引く	-11.6146
華やか	-11.6147
した事	-11.6147
つぎ	-11.6148
上達	-11.6149
商品です	-11.615
多いです	-11.615
しておりません	-11.6151
ok	-11.6151
が存在し	-11.6152
ダイナミック	-11.6153
残す	-11.6154
[...]
